unsigned char model_tflite[] = {
    0x20, 0x00, 0x00, 0x00, 0x54, 0x46, 0x4c, 0x33, 0x00, 0x00, 0x00, 0x00,
    0x14, 0x00, 0x20, 0x00, 0x1c, 0x00, 0x18, 0x00, 0x14, 0x00, 0x10, 0x00,
    0x0c, 0x00, 0x00, 0x00, 0x08, 0x00, 0x04, 0x00, 0x14, 0x00, 0x00, 0x00,
    0x1c, 0x00, 0x00, 0x00, 0x98, 0x00, 0x00, 0x00, 0xf0, 0x00, 0x00, 0x00,
    0x1c, 0x07, 0x00, 0x00, 0x2c, 0x07, 0x00, 0x00, 0xac, 0x12, 0x00, 0x00,
    0x03, 0x00, 0x00, 0x00, 0x01, 0x00, 0x00, 0x00, 0x10, 0x00, 0x00, 0x00,
    0x00, 0x00, 0x0a, 0x00, 0x10, 0x00, 0x0c, 0x00, 0x08, 0x00, 0x04, 0x00,
    0x0a, 0x00, 0x00, 0x00, 0x0c, 0x00, 0x00, 0x00, 0x1c, 0x00, 0x00, 0x00,
    0x3c, 0x00, 0x00, 0x00, 0x0f, 0x00, 0x00, 0x00, 0x73, 0x65, 0x72, 0x76,
    0x69, 0x6e, 0x67, 0x5f, 0x64, 0x65, 0x66, 0x61, 0x75, 0x6c, 0x74, 0x00,
    0x01, 0x00, 0x00, 0x00, 0x04, 0x00, 0x00, 0x00, 0x90, 0xff, 0xff, 0xff,
    0x09, 0x00, 0x00, 0x00, 0x04, 0x00, 0x00, 0x00, 0x08, 0x00, 0x00, 0x00,
    0x6f, 0x75, 0x74, 0x70, 0x75, 0x74, 0x5f, 0x30, 0x00, 0x00, 0x00, 0x00,
    0x01, 0x00, 0x00, 0x00, 0x04, 0x00, 0x00, 0x00, 0x86, 0xf9, 0xff, 0xff,
    0x04, 0x00, 0x00, 0x00, 0x0c, 0x00, 0x00, 0x00, 0x6b, 0x65, 0x72, 0x61,
    0x73, 0x5f, 0x74, 0x65, 0x6e, 0x73, 0x6f, 0x72, 0x00, 0x00, 0x00, 0x00,
    0x02, 0x00, 0x00, 0x00, 0x34, 0x00, 0x00, 0x00, 0x04, 0x00, 0x00, 0x00,
    0xdc, 0xff, 0xff, 0xff, 0x0c, 0x00, 0x00, 0x00, 0x04, 0x00, 0x00, 0x00,
    0x13, 0x00, 0x00, 0x00, 0x43, 0x4f, 0x4e, 0x56, 0x45, 0x52, 0x53, 0x49,
    0x4f, 0x4e, 0x5f, 0x4d, 0x45, 0x54, 0x41, 0x44, 0x41, 0x54, 0x41, 0x00,
    0x08, 0x00, 0x0c, 0x00, 0x08, 0x00, 0x04, 0x00, 0x08, 0x00, 0x00, 0x00,
    0x0b, 0x00, 0x00, 0x00, 0x04, 0x00, 0x00, 0x00, 0x13, 0x00, 0x00, 0x00,
    0x6d, 0x69, 0x6e, 0x5f, 0x72, 0x75, 0x6e, 0x74, 0x69, 0x6d, 0x65, 0x5f,
    0x76, 0x65, 0x72, 0x73, 0x69, 0x6f, 0x6e, 0x00, 0x0d, 0x00, 0x00, 0x00,
    0x28, 0x06, 0x00, 0x00, 0x20, 0x06, 0x00, 0x00, 0xfc, 0x05, 0x00, 0x00,
    0x6c, 0x05, 0x00, 0x00, 0xfc, 0x04, 0x00, 0x00, 0xec, 0x01, 0x00, 0x00,
    0x5c, 0x01, 0x00, 0x00, 0xac, 0x00, 0x00, 0x00, 0xa4, 0x00, 0x00, 0x00,
    0x9c, 0x00, 0x00, 0x00, 0x94, 0x00, 0x00, 0x00, 0x74, 0x00, 0x00, 0x00,
    0x04, 0x00, 0x00, 0x00, 0x36, 0xfa, 0xff, 0xff, 0x04, 0x00, 0x00, 0x00,
    0x60, 0x00, 0x00, 0x00, 0x0c, 0x00, 0x00, 0x00, 0x08, 0x00, 0x0e, 0x00,
    0x08, 0x00, 0x04, 0x00, 0x08, 0x00, 0x00, 0x00, 0x10, 0x00, 0x00, 0x00,
    0x28, 0x00, 0x00, 0x00, 0x00, 0x00, 0x06, 0x00, 0x08, 0x00, 0x04, 0x00,
    0x06, 0x00, 0x00, 0x00, 0x04, 0x00, 0x00, 0x00, 0x01, 0x00, 0x00, 0x00,
    0xeb, 0x03, 0x00, 0x00, 0x0c, 0x00, 0x18, 0x00, 0x14, 0x00, 0x10, 0x00,
    0x0c, 0x00, 0x04, 0x00, 0x0c, 0x00, 0x00, 0x00, 0x0c, 0x84, 0x59, 0xa4,
    0x7c, 0xa7, 0xf8, 0xc1, 0x02, 0x00, 0x00, 0x00, 0x02, 0x00, 0x00, 0x00,
    0x04, 0x00, 0x00, 0x00, 0x06, 0x00, 0x00, 0x00, 0x32, 0x2e, 0x32, 0x30,
    0x2e, 0x30, 0x00, 0x00, 0xa2, 0xfa, 0xff, 0xff, 0x04, 0x00, 0x00, 0x00,
    0x10, 0x00, 0x00, 0x00, 0x31, 0x2e, 0x31, 0x34, 0x2e, 0x30, 0x00, 0x00,
    0x00, 0x00, 0x00, 0x00, 0x00, 0x00, 0x00, 0x00, 0x1c, 0xfa, 0xff, 0xff,
    0x20, 0xfa, 0xff, 0xff, 0x24, 0xfa, 0xff, 0xff, 0xca, 0xfa, 0xff, 0xff,
    0x04, 0x00, 0x00, 0x00, 0xa0, 0x00, 0x00, 0x00, 0x74, 0xfd, 0x0d, 0x9f,
    0x7f, 0x4d, 0x81, 0x16, 0xcc, 0x5a, 0xce, 0xd4, 0xaa, 0x4d, 0x7f, 0x7f,
    0x62, 0xa9, 0xb2, 0x3e, 0x9b, 0x81, 0x69, 0xc7, 0x15, 0x88, 0xb4, 0x0a,
    0x7c, 0x81, 0xd3, 0xcb, 0x81, 0xd4, 0xb6, 0x6c, 0x71, 0xc7, 0x4c, 0x7f,
    0x81, 0x51, 0xe2, 0xb1, 0x0a, 0xda, 0x81, 0x19, 0x81, 0x55, 0x2a, 0xab,
    0x54, 0x81, 0x75, 0xc1, 0x81, 0x90, 0x61, 0x36, 0x81, 0x31, 0xbb, 0x4a,
    0xbb, 0xf0, 0x6d, 0x36, 0x81, 0xff, 0x13, 0x9e, 0x32, 0x7f, 0x97, 0x7f,
    0xcc, 0xf9, 0x19, 0xec, 0x81, 0xd3, 0x86, 0x2d, 0x1d, 0x69, 0x8e, 0x81,
    0xf9, 0xf2, 0x7f, 0xf0, 0x46, 0xe0, 0xc7, 0xe0, 0x62, 0x81, 0xc1, 0x5b,
    0xb4, 0x65, 0x95, 0x81, 0x98, 0x92, 0xef, 0x81, 0xc3, 0x4d, 0x5f, 0x24,
    0x96, 0x04, 0x7f, 0x41, 0x81, 0xff, 0x31, 0x94, 0xef, 0xb9, 0x81, 0xdb,
    0xd4, 0x4a, 0xbd, 0x12, 0x81, 0x97, 0x3c, 0x56, 0x05, 0x79, 0x81, 0xc4,
    0x40, 0x3b, 0xc3, 0x7f, 0xbf, 0xeb, 0xbc, 0x7f, 0xf9, 0x52, 0x7f, 0x0c,
    0x2d, 0x92, 0x2e, 0x46, 0x81, 0x77, 0xe5, 0x7f, 0xe2, 0xca, 0x5a, 0xfd,
    0x76, 0xfb, 0xff, 0xff, 0x04, 0x00, 0x00, 0x00, 0x80, 0x00, 0x00, 0x00,
    0xf0, 0x00, 0x00, 0x00, 0x01, 0x06, 0x00, 0x00, 0xbd, 0xf8, 0xff, 0xff,
    0xf3, 0xf6, 0xff, 0xff, 0xfe, 0xf7, 0xff, 0xff, 0xdb, 0xfd, 0xff, 0xff,
    0xbb, 0xfa, 0xff, 0xff, 0xdc, 0xfe, 0xff, 0xff, 0x13, 0xf7, 0xff, 0xff,
    0xca, 0x08, 0x00, 0x00, 0xd3, 0xfa, 0xff, 0xff, 0xbf, 0xff, 0xff, 0xff,
    0xac, 0xfa, 0xff, 0xff, 0x05, 0xff, 0xff, 0xff, 0xba, 0xfe, 0xff, 0xff,
    0x20, 0xf5, 0xff, 0xff, 0xed, 0xfb, 0xff, 0xff, 0x7f, 0x01, 0x00, 0x00,
    0x8c, 0xfd, 0xff, 0xff, 0x4c, 0xfd, 0xff, 0xff, 0x1f, 0xfc, 0xff, 0xff,
    0x7d, 0x03, 0x00, 0x00, 0x0f, 0xf5, 0xff, 0xff, 0x2a, 0x06, 0x00, 0x00,
    0xe2, 0xfa, 0xff, 0xff, 0x0d, 0xfa, 0xff, 0xff, 0x61, 0xfb, 0xff, 0xff,
    0x7e, 0xff, 0xff, 0xff, 0x14, 0x04, 0x00, 0x00, 0x50, 0xfd, 0xff, 0xff,
    0xd0, 0xfb, 0xff, 0xff, 0xb7, 0x00, 0x00, 0x00, 0x02, 0xfc, 0xff, 0xff,
    0x04, 0x00, 0x00, 0x00, 0x00, 0x03, 0x00, 0x00, 0x95, 0x40, 0x3b, 0x61,
    0x91, 0xda, 0x50, 0x6e, 0xf9, 0xe5, 0x1f, 0x81, 0x03, 0x4b, 0x87, 0xcc,
    0xdd, 0x38, 0x17, 0x49, 0xa0, 0x9a, 0xd9, 0xcc, 0xc8, 0x4d, 0x7c, 0xa8,
    0x0e, 0xf5, 0xfb, 0x14, 0xf3, 0x33, 0xfa, 0x1a, 0xe7, 0x2e, 0x07, 0xed,
    0x1e, 0x3b, 0x1f, 0x13, 0x38, 0xe3, 0x46, 0xf8, 0x81, 0xfc, 0x33, 0xcd,
    0x09, 0xe7, 0x1c, 0x45, 0xf1, 0xe9, 0xe2, 0xe9, 0xa6, 0xba, 0xb7, 0x24,
    0x34, 0xbc, 0x39, 0xc4, 0x3e, 0xee, 0x1c, 0xf6, 0xfb, 0xdb, 0xec, 0x12,
    0xcf, 0x0b, 0x41, 0x19, 0x7f, 0x38, 0x4b, 0x12, 0x30, 0x4f, 0xf5, 0xfb,
    0xe1, 0x0f, 0x18, 0x25, 0x41, 0xf0, 0xef, 0x38, 0x3b, 0xf7, 0x3d, 0x1f,
    0x15, 0x35, 0x47, 0xcb, 0x03, 0xbd, 0x3c, 0x81, 0xbf, 0x31, 0x27, 0xd9,
    0x22, 0x53, 0x42, 0xd2, 0xb9, 0x3c, 0xfc, 0x89, 0x0d, 0xd4, 0xe3, 0x08,
    0x02, 0xd8, 0xe8, 0x27, 0xf4, 0x98, 0x9e, 0x03, 0x89, 0x29, 0xa1, 0x4d,
    0x9d, 0x00, 0xac, 0xf3, 0x05, 0x20, 0x45, 0x00, 0x83, 0xf7, 0x73, 0x52,
    0xf0, 0x89, 0xbe, 0x4b, 0xe3, 0xee, 0xc0, 0x8a, 0x7f, 0xbb, 0xb2, 0x3c,
    0xc4, 0x11, 0x11, 0x21, 0xd2, 0xb0, 0x0e, 0x4d, 0xe1, 0x14, 0x01, 0xd7,
    0xbf, 0x29, 0x7f, 0x52, 0x48, 0x10, 0xf9, 0xef, 0x05, 0x44, 0xb2, 0x32,
    0x07, 0x75, 0x17, 0xbf, 0x47, 0xb0, 0x0e, 0xf6, 0xc5, 0x2e, 0xe2, 0x0b,
    0xb8, 0xcf, 0x1f, 0x23, 0x1e, 0xe2, 0x8a, 0x2f, 0x1d, 0xbd, 0x13, 0x90,
    0x0e, 0xbf, 0xac, 0x8f, 0x81, 0xe3, 0x42, 0x9b, 0x89, 0x18, 0xd8, 0x4c,
    0x18, 0x17, 0x27, 0xb4, 0x31, 0x2f, 0xf2, 0xfb, 0xee, 0x2d, 0xd7, 0xfa,
    0xdf, 0x4a, 0x08, 0x1d, 0x3a, 0x03, 0x1a, 0xc0, 0xcb, 0xdd, 0xfa, 0x81,
    0x0b, 0xcd, 0xd5, 0x44, 0xd2, 0x3e, 0xb9, 0x06, 0xfd, 0xd6, 0xd8, 0xd6,
    0x9b, 0x7c, 0xec, 0xe0, 0x6a, 0x34, 0xdc, 0x38, 0x2c, 0xa3, 0xc7, 0x8d,
    0x2f, 0x4c, 0xa2, 0x11, 0x16, 0x8a, 0xfb, 0xcd, 0xfe, 0xfb, 0xfb, 0x47,
    0x2c, 0x87, 0x5d, 0x81, 0xc0, 0x05, 0xd5, 0x52, 0xcb, 0x46, 0xd3, 0xff,
    0x81, 0xe5, 0x47, 0x38, 0x44, 0x59, 0x93, 0x43, 0x02, 0xd5, 0x25, 0x09,
    0x61, 0xf7, 0x19, 0xd5, 0x44, 0xc7, 0xc6, 0xd9, 0x6a, 0xb7, 0x24, 0xff,
    0xc5, 0xd9, 0xf2, 0xe0, 0xb7, 0x56, 0x2e, 0x22, 0x45, 0x14, 0xc8, 0xe5,
    0x02, 0x3e, 0x9e, 0xa2, 0xbe, 0x3f, 0x4b, 0x4e, 0xcb, 0x9e, 0x11, 0x53,
    0x23, 0xb3, 0xf9, 0xf7, 0x60, 0x7f, 0xb9, 0x15, 0x48, 0x11, 0x3b, 0x00,
    0xc6, 0x1d, 0x28, 0xc0, 0x59, 0x43, 0x41, 0x81, 0x5c, 0xd9, 0x68, 0x5a,
    0x13, 0xbe, 0x3c, 0x1f, 0x09, 0xf2, 0x03, 0xb7, 0xfa, 0x09, 0xec, 0xf0,
    0x61, 0xed, 0x09, 0x3e, 0x86, 0x90, 0xf7, 0x3e, 0x08, 0xb8, 0xc0, 0x26,
    0xbe, 0x38, 0xd0, 0x08, 0x86, 0x92, 0xbf, 0x2d, 0x90, 0xf1, 0x1e, 0x6a,
    0x23, 0x81, 0xbb, 0x2f, 0x8f, 0x90, 0xa9, 0xe9, 0x1c, 0x09, 0xaa, 0xdc,
    0x93, 0xb5, 0x22, 0x4d, 0x5e, 0x7f, 0xe2, 0x4e, 0x3e, 0xfd, 0x1b, 0xe9,
    0x14, 0xfb, 0xf1, 0x08, 0x7b, 0xf6, 0x7c, 0x1c, 0xd6, 0xdd, 0x3c, 0xed,
    0xd6, 0xaa, 0x29, 0x3e, 0xc8, 0xd1, 0x20, 0x0f, 0x07, 0x1a, 0xa8, 0x01,
    0x45, 0x31, 0x53, 0x37, 0xc3, 0xc0, 0x7f, 0x49, 0x5c, 0xf3, 0x51, 0x63,
    0xf2, 0x5d, 0xd8, 0xce, 0xfa, 0x61, 0xba, 0xd5, 0xcc, 0xe9, 0x4f, 0xbf,
    0x25, 0xf6, 0x15, 0x69, 0xf1, 0x23, 0x2f, 0xe5, 0xf6, 0x0a, 0x86, 0xe1,
    0x30, 0x50, 0xdb, 0xc6, 0x3b, 0x18, 0xf1, 0xad, 0x11, 0x2b, 0x6d, 0xe1,
    0xcf, 0xba, 0x1a, 0xe1, 0x44, 0x81, 0x42, 0x48, 0x2a, 0x3a, 0x55, 0xe4,
    0x00, 0xcf, 0x2a, 0xaa, 0xab, 0xa5, 0x24, 0x14, 0x2b, 0x33, 0x59, 0x38,
    0xbd, 0x49, 0xba, 0x25, 0xf9, 0x2c, 0x28, 0xd9, 0x34, 0x72, 0xe6, 0x7f,
    0x0d, 0xfd, 0xf0, 0x60, 0xd3, 0x0e, 0x50, 0x3a, 0x5a, 0x60, 0x37, 0x43,
    0x81, 0xaf, 0xcd, 0x31, 0x19, 0xb0, 0x0a, 0x2b, 0x08, 0x63, 0xb8, 0xfb,
    0xdf, 0xc0, 0x44, 0xfd, 0x9a, 0x8d, 0x58, 0x14, 0x0b, 0xce, 0xe3, 0x7a,
    0xfa, 0x2e, 0x0d, 0x2a, 0x95, 0x9f, 0x05, 0x0f, 0x1d, 0xd8, 0xd7, 0xa1,
    0xdc, 0xf3, 0x06, 0xa2, 0xab, 0x51, 0x83, 0x7f, 0x3d, 0xcb, 0xed, 0xa5,
    0x5d, 0x4a, 0xb3, 0x41, 0x2b, 0xdc, 0x35, 0x2c, 0x06, 0xc7, 0xa1, 0x63,
    0x30, 0x37, 0x19, 0x7a, 0xbb, 0x40, 0xef, 0x3e, 0x45, 0x93, 0x35, 0x0f,
    0xe9, 0xe7, 0x48, 0xd3, 0xd6, 0x4c, 0xdf, 0xdf, 0xf2, 0xd6, 0x81, 0x37,
    0x57, 0xf5, 0x6d, 0xcc, 0xa0, 0xe9, 0xd0, 0xef, 0xa0, 0x5d, 0xdb, 0x86,
    0xd5, 0x1b, 0x70, 0x4d, 0x07, 0x05, 0x7f, 0xff, 0xf1, 0xd5, 0xd4, 0x9d,
    0x57, 0x04, 0xcf, 0xfe, 0x7e, 0xd1, 0xa4, 0xb9, 0xdc, 0xb4, 0x4c, 0x23,
    0x67, 0x55, 0x98, 0x19, 0x41, 0x46, 0xe5, 0xfc, 0x08, 0x6c, 0xd9, 0xfc,
    0xcc, 0x0c, 0xdb, 0x39, 0x01, 0x06, 0x38, 0x21, 0x36, 0xd1, 0x92, 0xda,
    0x5d, 0x6a, 0xea, 0x09, 0xa9, 0xd7, 0x1c, 0x28, 0xee, 0x93, 0x29, 0x07,
    0x7f, 0xfc, 0x28, 0xa4, 0x34, 0x7f, 0x9c, 0x3e, 0x0d, 0x4b, 0xbd, 0x5b,
    0xde, 0x3d, 0xd7, 0xab, 0xb4, 0xb1, 0x40, 0xb2, 0x96, 0x15, 0xfd, 0xc2,
    0x56, 0xf0, 0xbd, 0x74, 0xd7, 0x76, 0xe7, 0x4b, 0xea, 0x23, 0xcf, 0x6a,
    0x11, 0xe5, 0xe9, 0xd3, 0xe2, 0xc1, 0xe1, 0x70, 0xf1, 0x81, 0xf7, 0xb3,
    0xee, 0xe7, 0xd7, 0xd7, 0x66, 0xc8, 0x11, 0xd2, 0x13, 0xcf, 0x17, 0xed,
    0x37, 0x11, 0x4f, 0xf9, 0xd6, 0x18, 0x76, 0x0b, 0x0e, 0xff, 0xff, 0xff,
    0x04, 0x00, 0x00, 0x00, 0x60, 0x00, 0x00, 0x00, 0x5b, 0x01, 0x00, 0x00,
    0x84, 0xff, 0xff, 0xff, 0x23, 0xf9, 0xff, 0xff, 0xb9, 0xf2, 0xff, 0xff,
    0x4f, 0x09, 0x00, 0x00, 0x97, 0xff, 0xff, 0xff, 0x56, 0xe2, 0xff, 0xff,
    0x5f, 0x01, 0x00, 0x00, 0x42, 0xfe, 0xff, 0xff, 0x76, 0xf5, 0xff, 0xff,
    0x7c, 0x02, 0x00, 0x00, 0x1d, 0xf4, 0xff, 0xff, 0xcb, 0xf7, 0xff, 0xff,
    0xf0, 0x10, 0x00, 0x00, 0x7f, 0x06, 0x00, 0x00, 0xfa, 0xfc, 0xff, 0xff,
    0x0d, 0xfe, 0xff, 0xff, 0x03, 0xfd, 0xff, 0xff, 0x5e, 0xf3, 0xff, 0xff,
    0x81, 0xf6, 0xff, 0xff, 0x13, 0xf2, 0xff, 0xff, 0xc1, 0xdf, 0xff, 0xff,
    0x9e, 0x05, 0x00, 0x00, 0xf9, 0x18, 0x00, 0x00, 0x7a, 0xff, 0xff, 0xff,
    0x04, 0x00, 0x00, 0x00, 0x78, 0x00, 0x00, 0x00, 0x1f, 0x16, 0x0a, 0x1a,
    0xa7, 0x09, 0xfc, 0x98, 0x20, 0x54, 0x18, 0x2c, 0x62, 0x81, 0xe4, 0xab,
    0xed, 0xed, 0x70, 0xd4, 0x48, 0x36, 0xb3, 0xb9, 0xc5, 0x3e, 0xb6, 0xbc,
    0x81, 0x09, 0x14, 0x52, 0x19, 0x14, 0x22, 0x41, 0x3d, 0x12, 0xd2, 0x30,
    0xaf, 0x47, 0xef, 0xd4, 0x96, 0x27, 0x12, 0x9c, 0xf4, 0xdc, 0xab, 0xb3,
    0x35, 0x11, 0x16, 0xdf, 0xb4, 0x43, 0xc0, 0x94, 0x31, 0x03, 0xda, 0x3d,
    0xb7, 0xaa, 0xb7, 0x84, 0x27, 0x44, 0xc9, 0x81, 0x27, 0x12, 0x33, 0xa6,
    0x42, 0xef, 0x36, 0xd5, 0xe7, 0xc8, 0x97, 0xb2, 0xf7, 0x9e, 0x85, 0x2e,
    0xff, 0x81, 0x03, 0x4c, 0x27, 0xb5, 0xba, 0xd0, 0xda, 0xd0, 0xae, 0x2d,
    0x1f, 0x81, 0x02, 0x01, 0xbd, 0xd4, 0xca, 0x36, 0xdf, 0x0a, 0xee, 0xf6,
    0xad, 0xc4, 0x1c, 0xf5, 0xc8, 0xaa, 0xfb, 0x25, 0x00, 0x00, 0x06, 0x00,
    0x08, 0x00, 0x04, 0x00, 0x06, 0x00, 0x00, 0x00, 0x04, 0x00, 0x00, 0x00,
    0x14, 0x00, 0x00, 0x00, 0xf9, 0xee, 0xff, 0xff, 0xeb, 0xf7, 0xff, 0xff,
    0xd1, 0xf1, 0xff, 0xff, 0x5e, 0xea, 0xff, 0xff, 0x2f, 0xf1, 0xff, 0xff,
    0x84, 0xff, 0xff, 0xff, 0x88, 0xff, 0xff, 0xff, 0x0f, 0x00, 0x00, 0x00,
    0x4d, 0x4c, 0x49, 0x52, 0x20, 0x43, 0x6f, 0x6e, 0x76, 0x65, 0x72, 0x74,
    0x65, 0x64, 0x2e, 0x00, 0x01, 0x00, 0x00, 0x00, 0x14, 0x00, 0x00, 0x00,
    0x00, 0x00, 0x0e, 0x00, 0x18, 0x00, 0x14, 0x00, 0x10, 0x00, 0x0c, 0x00,
    0x08, 0x00, 0x04, 0x00, 0x0e, 0x00, 0x00, 0x00, 0x14, 0x00, 0x00, 0x00,
    0x1c, 0x00, 0x00, 0x00, 0xdc, 0x00, 0x00, 0x00, 0xe0, 0x00, 0x00, 0x00,
    0xe4, 0x00, 0x00, 0x00, 0x04, 0x00, 0x00, 0x00, 0x6d, 0x61, 0x69, 0x6e,
    0x00, 0x00, 0x00, 0x00, 0x03, 0x00, 0x00, 0x00, 0x84, 0x00, 0x00, 0x00,
    0x3c, 0x00, 0x00, 0x00, 0x04, 0x00, 0x00, 0x00, 0x96, 0xff, 0xff, 0xff,
    0x14, 0x00, 0x00, 0x00, 0x00, 0x00, 0x00, 0x08, 0x10, 0x00, 0x00, 0x00,
    0x14, 0x00, 0x00, 0x00, 0x04, 0x00, 0x04, 0x00, 0x04, 0x00, 0x00, 0x00,
    0x01, 0x00, 0x00, 0x00, 0x09, 0x00, 0x00, 0x00, 0x03, 0x00, 0x00, 0x00,
    0x08, 0x00, 0x00, 0x00, 0x02, 0x00, 0x00, 0x00, 0x01, 0x00, 0x00, 0x00,
    0xca, 0xff, 0xff, 0xff, 0x10, 0x00, 0x00, 0x00, 0x00, 0x00, 0x00, 0x08,
    0x10, 0x00, 0x00, 0x00, 0x14, 0x00, 0x00, 0x00, 0xba, 0xff, 0xff, 0xff,
    0x00, 0x00, 0x00, 0x01, 0x01, 0x00, 0x00, 0x00, 0x08, 0x00, 0x00, 0x00,
    0x03, 0x00, 0x00, 0x00, 0x07, 0x00, 0x00, 0x00, 0x04, 0x00, 0x00, 0x00,
    0x03, 0x00, 0x00, 0x00, 0x00, 0x00, 0x0e, 0x00, 0x16, 0x00, 0x00, 0x00,
    0x10, 0x00, 0x0c, 0x00, 0x0b, 0x00, 0x04, 0x00, 0x0e, 0x00, 0x00, 0x00,
    0x18, 0x00, 0x00, 0x00, 0x00, 0x00, 0x00, 0x08, 0x18, 0x00, 0x00, 0x00,
    0x1c, 0x00, 0x00, 0x00, 0x00, 0x00, 0x06, 0x00, 0x08, 0x00, 0x07, 0x00,
    0x06, 0x00, 0x00, 0x00, 0x00, 0x00, 0x00, 0x01, 0x01, 0x00, 0x00, 0x00,
    0x07, 0x00, 0x00, 0x00, 0x03, 0x00, 0x00, 0x00, 0x00, 0x00, 0x00, 0x00,
    0x06, 0x00, 0x00, 0x00, 0x05, 0x00, 0x00, 0x00, 0x01, 0x00, 0x00, 0x00,
    0x09, 0x00, 0x00, 0x00, 0x01, 0x00, 0x00, 0x00, 0x00, 0x00, 0x00, 0x00,
    0x0a, 0x00, 0x00, 0x00, 0xe4, 0x09, 0x00, 0x00, 0x3c, 0x09, 0x00, 0x00,
    0x90, 0x08, 0x00, 0x00, 0x1c, 0x07, 0x00, 0x00, 0xa0, 0x05, 0x00, 0x00,
    0xcc, 0x03, 0x00, 0x00, 0xf0, 0x01, 0x00, 0x00, 0x3c, 0x01, 0x00, 0x00,
    0x80, 0x00, 0x00, 0x00, 0x04, 0x00, 0x00, 0x00, 0x5a, 0xf6, 0xff, 0xff,
    0x00, 0x00, 0x00, 0x01, 0x18, 0x00, 0x00, 0x00, 0x20, 0x00, 0x00, 0x00,
    0x3c, 0x00, 0x00, 0x00, 0x0a, 0x00, 0x00, 0x00, 0x00, 0x00, 0x00, 0x09,
    0x50, 0x00, 0x00, 0x00, 0x02, 0x00, 0x00, 0x00, 0xff, 0xff, 0xff, 0xff,
    0x05, 0x00, 0x00, 0x00, 0x44, 0xf6, 0xff, 0xff, 0x08, 0x00, 0x00, 0x00,
    0x10, 0x00, 0x00, 0x00, 0x01, 0x00, 0x00, 0x00, 0x18, 0x00, 0x00, 0x00,
    0x00, 0x00, 0x00, 0x00, 0x01, 0x00, 0x00, 0x00, 0x0e, 0x0a, 0x2d, 0x3c,
    0x1b, 0x00, 0x00, 0x00, 0x53, 0x74, 0x61, 0x74, 0x65, 0x66, 0x75, 0x6c,
    0x50, 0x61, 0x72, 0x74, 0x69, 0x74, 0x69, 0x6f, 0x6e, 0x65, 0x64, 0x43,
    0x61, 0x6c, 0x6c, 0x5f, 0x31, 0x3a, 0x30, 0x00, 0x02, 0x00, 0x00, 0x00,
    0x01, 0x00, 0x00, 0x00, 0x05, 0x00, 0x00, 0x00, 0xd2, 0xf6, 0xff, 0xff,
    0x00, 0x00, 0x00, 0x01, 0x18, 0x00, 0x00, 0x00, 0x20, 0x00, 0x00, 0x00,
    0x3c, 0x00, 0x00, 0x00, 0x09, 0x00, 0x00, 0x00, 0x00, 0x00, 0x00, 0x09,
    0x90, 0x00, 0x00, 0x00, 0x02, 0x00, 0x00, 0x00, 0xff, 0xff, 0xff, 0xff,
    0x18, 0x00, 0x00, 0x00, 0xbc, 0xf6, 0xff, 0xff, 0x08, 0x00, 0x00, 0x00,
    0x10, 0x00, 0x00, 0x00, 0x01, 0x00, 0x00, 0x00, 0x80, 0xff, 0xff, 0xff,
    0xff, 0xff, 0xff, 0xff, 0x01, 0x00, 0x00, 0x00, 0xc5, 0xb3, 0xc4, 0x3b,
    0x58, 0x00, 0x00, 0x00, 0x73, 0x65, 0x71, 0x75, 0x65, 0x6e, 0x74, 0x69,
    0x61, 0x6c, 0x5f, 0x31, 0x2f, 0x64, 0x65, 0x6e, 0x73, 0x65, 0x5f, 0x31,
    0x5f, 0x32, 0x2f, 0x4d, 0x61, 0x74, 0x4d, 0x75, 0x6c, 0x3b, 0x73, 0x65,
    0x71, 0x75, 0x65, 0x6e, 0x74, 0x69, 0x61, 0x6c, 0x5f, 0x31, 0x2f, 0x64,
    0x65, 0x6e, 0x73, 0x65, 0x5f, 0x31, 0x5f, 0x32, 0x2f, 0x52, 0x65, 0x6c,
    0x75, 0x3b, 0x73, 0x65, 0x71, 0x75, 0x65, 0x6e, 0x74, 0x69, 0x61, 0x6c,
    0x5f, 0x31, 0x2f, 0x64, 0x65, 0x6e, 0x73, 0x65, 0x5f, 0x31, 0x5f, 0x32,
    0x2f, 0x42, 0x69, 0x61, 0x73, 0x41, 0x64, 0x64, 0x00, 0x00, 0x00, 0x00,
    0x02, 0x00, 0x00, 0x00, 0x01, 0x00, 0x00, 0x00, 0x18, 0x00, 0x00, 0x00,
    0x8a, 0xf7, 0xff, 0xff, 0x00, 0x00, 0x00, 0x01, 0x18, 0x00, 0x00, 0x00,
    0x20, 0x00, 0x00, 0x00, 0x3c, 0x00, 0x00, 0x00, 0x08, 0x00, 0x00, 0x00,
    0x00, 0x00, 0x00, 0x09, 0x88, 0x00, 0x00, 0x00, 0x02, 0x00, 0x00, 0x00,
    0xff, 0xff, 0xff, 0xff, 0x20, 0x00, 0x00, 0x00, 0x74, 0xf7, 0xff, 0xff,
    0x08, 0x00, 0x00, 0x00, 0x10, 0x00, 0x00, 0x00, 0x01, 0x00, 0x00, 0x00,
    0x80, 0xff, 0xff, 0xff, 0xff, 0xff, 0xff, 0xff, 0x01, 0x00, 0x00, 0x00,
    0x9e, 0xac, 0xb0, 0x3b, 0x52, 0x00, 0x00, 0x00, 0x73, 0x65, 0x71, 0x75,
    0x65, 0x6e, 0x74, 0x69, 0x61, 0x6c, 0x5f, 0x31, 0x2f, 0x64, 0x65, 0x6e,
    0x73, 0x65, 0x5f, 0x31, 0x2f, 0x4d, 0x61, 0x74, 0x4d, 0x75, 0x6c, 0x3b,
    0x73, 0x65, 0x71, 0x75, 0x65, 0x6e, 0x74, 0x69, 0x61, 0x6c, 0x5f, 0x31,
    0x2f, 0x64, 0x65, 0x6e, 0x73, 0x65, 0x5f, 0x31, 0x2f, 0x52, 0x65, 0x6c,
    0x75, 0x3b, 0x73, 0x65, 0x71, 0x75, 0x65, 0x6e, 0x74, 0x69, 0x61, 0x6c,
    0x5f, 0x31, 0x2f, 0x64, 0x65, 0x6e, 0x73, 0x65, 0x5f, 0x31, 0x2f, 0x42,
    0x69, 0x61, 0x73, 0x41, 0x64, 0x64, 0x00, 0x00, 0x02, 0x00, 0x00, 0x00,
    0x01, 0x00, 0x00, 0x00, 0x20, 0x00, 0x00, 0x00, 0xde, 0xf8, 0xff, 0xff,
    0x00, 0x00, 0x00, 0x01, 0x14, 0x00, 0x00, 0x00, 0xa8, 0x01, 0x00, 0x00,
    0x07, 0x00, 0x00, 0x00, 0x00, 0x00, 0x00, 0x09, 0xb4, 0x01, 0x00, 0x00,
    0x14, 0xf8, 0xff, 0xff, 0x08, 0x00, 0x00, 0x00, 0x0c, 0x01, 0x00, 0x00,
    0x20, 0x00, 0x00, 0x00, 0x00, 0x00, 0x00, 0x00, 0x00, 0x00, 0x00, 0x00,
    0x00, 0x00, 0x00, 0x00, 0x00, 0x00, 0x00, 0x00, 0x00, 0x00, 0x00, 0x00,
    0x00, 0x00, 0x00, 0x00, 0x00, 0x00, 0x00, 0x00, 0x00, 0x00, 0x00, 0x00,
    0x00, 0x00, 0x00, 0x00, 0x00, 0x00, 0x00, 0x00, 0x00, 0x00, 0x00, 0x00,
    0x00, 0x00, 0x00, 0x00, 0x00, 0x00, 0x00, 0x00, 0x00, 0x00, 0x00, 0x00,
    0x00, 0x00, 0x00, 0x00, 0x00, 0x00, 0x00, 0x00, 0x00, 0x00, 0x00, 0x00,
    0x00, 0x00, 0x00, 0x00, 0x00, 0x00, 0x00, 0x00, 0x00, 0x00, 0x00, 0x00,
    0x00, 0x00, 0x00, 0x00, 0x00, 0x00, 0x00, 0x00, 0x00, 0x00, 0x00, 0x00,
    0x00, 0x00, 0x00, 0x00, 0x00, 0x00, 0x00, 0x00, 0x00, 0x00, 0x00, 0x00,
    0x00, 0x00, 0x00, 0x00, 0x00, 0x00, 0x00, 0x00, 0x00, 0x00, 0x00, 0x00,
    0x00, 0x00, 0x00, 0x00, 0x00, 0x00, 0x00, 0x00, 0x00, 0x00, 0x00, 0x00,
    0x00, 0x00, 0x00, 0x00, 0x00, 0x00, 0x00, 0x00, 0x00, 0x00, 0x00, 0x00,
    0x00, 0x00, 0x00, 0x00, 0x00, 0x00, 0x00, 0x00, 0x00, 0x00, 0x00, 0x00,
    0x00, 0x00, 0x00, 0x00, 0x00, 0x00, 0x00, 0x00, 0x00, 0x00, 0x00, 0x00,
    0x00, 0x00, 0x00, 0x00, 0x00, 0x00, 0x00, 0x00, 0x00, 0x00, 0x00, 0x00,
    0x00, 0x00, 0x00, 0x00, 0x00, 0x00, 0x00, 0x00, 0x00, 0x00, 0x00, 0x00,
    0x00, 0x00, 0x00, 0x00, 0x00, 0x00, 0x00, 0x00, 0x00, 0x00, 0x00, 0x00,
    0x00, 0x00, 0x00, 0x00, 0x00, 0x00, 0x00, 0x00, 0x00, 0x00, 0x00, 0x00,
    0x00, 0x00, 0x00, 0x00, 0x00, 0x00, 0x00, 0x00, 0x00, 0x00, 0x00, 0x00,
    0x00, 0x00, 0x00, 0x00, 0x00, 0x00, 0x00, 0x00, 0x00, 0x00, 0x00, 0x00,
    0x00, 0x00, 0x00, 0x00, 0x00, 0x00, 0x00, 0x00, 0x00, 0x00, 0x00, 0x00,
    0x00, 0x00, 0x00, 0x00, 0x00, 0x00, 0x00, 0x00, 0x00, 0x00, 0x00, 0x00,
    0x20, 0x00, 0x00, 0x00, 0x0e, 0x74, 0x1e, 0x3b, 0xe9, 0x2c, 0x1f, 0x3b,
    0x4d, 0x29, 0x30, 0x3b, 0x2e, 0xd7, 0x17, 0x3b, 0x24, 0x11, 0x24, 0x3b,
    0x86, 0xb8, 0x4e, 0x3b, 0x7f, 0xed, 0x83, 0x3b, 0x0e, 0x63, 0x48, 0x3b,
    0x65, 0xcb, 0x3a, 0x3b, 0x16, 0x5c, 0x2e, 0x3b, 0xb6, 0x48, 0x26, 0x3b,
    0x71, 0x67, 0x2c, 0x3b, 0xaa, 0x38, 0x46, 0x3b, 0x4e, 0xfc, 0x44, 0x3b,
    0x7b, 0xe5, 0x49, 0x3b, 0xcc, 0x02, 0xa6, 0x3a, 0x4a, 0xa6, 0xd4, 0x3a,
    0x88, 0xec, 0xf6, 0x3a, 0xd6, 0xec, 0x24, 0x3b, 0x4b, 0xa7, 0x34, 0x3b,
    0xed, 0xf4, 0x0d, 0x3b, 0xcf, 0x11, 0x41, 0x3b, 0x8b, 0xba, 0x24, 0x3b,
    0x0e, 0x43, 0x3a, 0x3b, 0x6f, 0xe8, 0x6b, 0x3b, 0x59, 0xd3, 0x2b, 0x3b,
    0x9a, 0x38, 0x0e, 0x3b, 0x8d, 0x26, 0x42, 0x3b, 0xde, 0x83, 0x4c, 0x3b,
    0x60, 0xfe, 0x46, 0x3b, 0xdf, 0x3b, 0x13, 0x3b, 0x4e, 0x0d, 0x0b, 0x3b,
    0x12, 0x00, 0x00, 0x00, 0x74, 0x66, 0x6c, 0x2e, 0x70, 0x73, 0x65, 0x75,
    0x64, 0x6f, 0x5f, 0x71, 0x63, 0x6f, 0x6e, 0x73, 0x74, 0x35, 0x00, 0x00,
    0x02, 0x00, 0x00, 0x00, 0x20, 0x00, 0x00, 0x00, 0x05, 0x00, 0x00, 0x00,
    0xb6, 0xfa, 0xff, 0xff, 0x00, 0x00, 0x00, 0x01, 0x14, 0x00, 0x00, 0x00,
    0xa4, 0x01, 0x00, 0x00, 0x06, 0x00, 0x00, 0x00, 0x00, 0x00, 0x00, 0x02,
    0xb0, 0x01, 0x00, 0x00, 0xec, 0xf9, 0xff, 0xff, 0x08, 0x00, 0x00, 0x00,
    0x08, 0x01, 0x00, 0x00, 0x20, 0x00, 0x00, 0x00, 0x00, 0x00, 0x00, 0x00,
    0x00, 0x00, 0x00, 0x00, 0x00, 0x00, 0x00, 0x00, 0x00, 0x00, 0x00, 0x00,
    0x00, 0x00, 0x00, 0x00, 0x00, 0x00, 0x00, 0x00, 0x00, 0x00, 0x00, 0x00,
    0x00, 0x00, 0x00, 0x00, 0x00, 0x00, 0x00, 0x00, 0x00, 0x00, 0x00, 0x00,
    0x00, 0x00, 0x00, 0x00, 0x00, 0x00, 0x00, 0x00, 0x00, 0x00, 0x00, 0x00,
    0x00, 0x00, 0x00, 0x00, 0x00, 0x00, 0x00, 0x00, 0x00, 0x00, 0x00, 0x00,
    0x00, 0x00, 0x00, 0x00, 0x00, 0x00, 0x00, 0x00, 0x00, 0x00, 0x00, 0x00,
    0x00, 0x00, 0x00, 0x00, 0x00, 0x00, 0x00, 0x00, 0x00, 0x00, 0x00, 0x00,
    0x00, 0x00, 0x00, 0x00, 0x00, 0x00, 0x00, 0x00, 0x00, 0x00, 0x00, 0x00,
    0x00, 0x00, 0x00, 0x00, 0x00, 0x00, 0x00, 0x00, 0x00, 0x00, 0x00, 0x00,
    0x00, 0x00, 0x00, 0x00, 0x00, 0x00, 0x00, 0x00, 0x00, 0x00, 0x00, 0x00,
    0x00, 0x00, 0x00, 0x00, 0x00, 0x00, 0x00, 0x00, 0x00, 0x00, 0x00, 0x00,
    0x00, 0x00, 0x00, 0x00, 0x00, 0x00, 0x00, 0x00, 0x00, 0x00, 0x00, 0x00,
    0x00, 0x00, 0x00, 0x00, 0x00, 0x00, 0x00, 0x00, 0x00, 0x00, 0x00, 0x00,
    0x00, 0x00, 0x00, 0x00, 0x00, 0x00, 0x00, 0x00, 0x00, 0x00, 0x00, 0x00,
    0x00, 0x00, 0x00, 0x00, 0x00, 0x00, 0x00, 0x00, 0x00, 0x00, 0x00, 0x00,
    0x00, 0x00, 0x00, 0x00, 0x00, 0x00, 0x00, 0x00, 0x00, 0x00, 0x00, 0x00,
    0x00, 0x00, 0x00, 0x00, 0x00, 0x00, 0x00, 0x00, 0x00, 0x00, 0x00, 0x00,
    0x00, 0x00, 0x00, 0x00, 0x00, 0x00, 0x00, 0x00, 0x00, 0x00, 0x00, 0x00,
    0x00, 0x00, 0x00, 0x00, 0x00, 0x00, 0x00, 0x00, 0x00, 0x00, 0x00, 0x00,
    0x00, 0x00, 0x00, 0x00, 0x00, 0x00, 0x00, 0x00, 0x00, 0x00, 0x00, 0x00,
    0x00, 0x00, 0x00, 0x00, 0x00, 0x00, 0x00, 0x00, 0x00, 0x00, 0x00, 0x00,
    0x20, 0x00, 0x00, 0x00, 0x7d, 0x8a, 0x28, 0x38, 0x1d, 0x4f, 0x29, 0x38,
    0x56, 0x60, 0x3b, 0x38, 0xd7, 0x81, 0x21, 0x38, 0x11, 0x83, 0x2e, 0x38,
    0x9c, 0xe1, 0x5b, 0x38, 0x9f, 0x53, 0x8c, 0x38, 0xea, 0x24, 0x55, 0x38,
    0xba, 0xaf, 0x46, 0x38, 0xc2, 0x75, 0x39, 0x38, 0xc5, 0xde, 0x30, 0x38,
    0x3e, 0x61, 0x37, 0x38, 0x3a, 0xd7, 0x52, 0x38, 0xba, 0x86, 0x51, 0x38,
    0xf1, 0xbf, 0x56, 0x38, 0x67, 0x94, 0xb0, 0x37, 0x00, 0x30, 0xe2, 0x37,
    0x6b, 0x52, 0x03, 0x38, 0xbf, 0x6c, 0x2f, 0x38, 0x8a, 0x27, 0x40, 0x38,
    0x81, 0xfe, 0x16, 0x38, 0x69, 0x5c, 0x4d, 0x38, 0x40, 0x37, 0x2f, 0x38,
    0xb5, 0x1e, 0x46, 0x38, 0x34, 0xed, 0x7a, 0x38, 0xb8, 0xc3, 0x36, 0x38,
    0x7d, 0x46, 0x17, 0x38, 0xc5, 0x82, 0x4e, 0x38, 0x01, 0x89, 0x59, 0x38,
    0x87, 0xa9, 0x53, 0x38, 0x74, 0x9b, 0x1c, 0x38, 0x8a, 0xe7, 0x13, 0x38,
    0x12, 0x00, 0x00, 0x00, 0x74, 0x66, 0x6c, 0x2e, 0x70, 0x73, 0x65, 0x75,
    0x64, 0x6f, 0x5f, 0x71, 0x63, 0x6f, 0x6e, 0x73, 0x74, 0x34, 0x00, 0x00,
    0x01, 0x00, 0x00, 0x00, 0x20, 0x00, 0x00, 0x00, 0x86, 0xfc, 0xff, 0xff,
    0x00, 0x00, 0x00, 0x01, 0x14, 0x00, 0x00, 0x00, 0x48, 0x01, 0x00, 0x00,
    0x05, 0x00, 0x00, 0x00, 0x00, 0x00, 0x00, 0x09, 0x54, 0x01, 0x00, 0x00,
    0xbc, 0xfb, 0xff, 0xff, 0x08, 0x00, 0x00, 0x00, 0xcc, 0x00, 0x00, 0x00,
    0x18, 0x00, 0x00, 0x00, 0x00, 0x00, 0x00, 0x00, 0x00, 0x00, 0x00, 0x00,
    0x00, 0x00, 0x00, 0x00, 0x00, 0x00, 0x00, 0x00, 0x00, 0x00, 0x00, 0x00,
    0x00, 0x00, 0x00, 0x00, 0x00, 0x00, 0x00, 0x00, 0x00, 0x00, 0x00, 0x00,
    0x00, 0x00, 0x00, 0x00, 0x00, 0x00, 0x00, 0x00, 0x00, 0x00, 0x00, 0x00,
    0x00, 0x00, 0x00, 0x00, 0x00, 0x00, 0x00, 0x00, 0x00, 0x00, 0x00, 0x00,
    0x00, 0x00, 0x00, 0x00, 0x00, 0x00, 0x00, 0x00, 0x00, 0x00, 0x00, 0x00,
    0x00, 0x00, 0x00, 0x00, 0x00, 0x00, 0x00, 0x00, 0x00, 0x00, 0x00, 0x00,
    0x00, 0x00, 0x00, 0x00, 0x00, 0x00, 0x00, 0x00, 0x00, 0x00, 0x00, 0x00,
    0x00, 0x00, 0x00, 0x00, 0x00, 0x00, 0x00, 0x00, 0x00, 0x00, 0x00, 0x00,
    0x00, 0x00, 0x00, 0x00, 0x00, 0x00, 0x00, 0x00, 0x00, 0x00, 0x00, 0x00,
    0x00, 0x00, 0x00, 0x00, 0x00, 0x00, 0x00, 0x00, 0x00, 0x00, 0x00, 0x00,
    0x00, 0x00, 0x00, 0x00, 0x00, 0x00, 0x00, 0x00, 0x00, 0x00, 0x00, 0x00,
    0x00, 0x00, 0x00, 0x00, 0x00, 0x00, 0x00, 0x00, 0x00, 0x00, 0x00, 0x00,
    0x00, 0x00, 0x00, 0x00, 0x00, 0x00, 0x00, 0x00, 0x00, 0x00, 0x00, 0x00,
    0x00, 0x00, 0x00, 0x00, 0x00, 0x00, 0x00, 0x00, 0x00, 0x00, 0x00, 0x00,
    0x00, 0x00, 0x00, 0x00, 0x00, 0x00, 0x00, 0x00, 0x00, 0x00, 0x00, 0x00,
    0x00, 0x00, 0x00, 0x00, 0x00, 0x00, 0x00, 0x00, 0x18, 0x00, 0x00, 0x00,
    0x2b, 0xf8, 0x25, 0x3b, 0x51, 0x5e, 0x99, 0x3b, 0xfc, 0xa4, 0x89, 0x3b,
    0xbc, 0x38, 0x54, 0x3b, 0xe0, 0x39, 0x3e, 0x3b, 0x7a, 0x01, 0x52, 0x3b,
    0x89, 0x26, 0x49, 0x3b, 0x53, 0xa2, 0x84, 0x3b, 0x00, 0x3b, 0x35, 0x3b,
    0x45, 0x16, 0x5e, 0x3b, 0x35, 0xef, 0x3a, 0x3b, 0xa2, 0x7b, 0x42, 0x3b,
    0xd0, 0x4c, 0x30, 0x3b, 0x96, 0xc1, 0x45, 0x3b, 0x9d, 0xe6, 0x70, 0x3b,
    0x4d, 0xc4, 0x54, 0x3b, 0xff, 0x0e, 0x32, 0x3b, 0xb2, 0xbc, 0x3b, 0x3b,
    0x80, 0x0a, 0x3e, 0x3b, 0xcd, 0xc5, 0x36, 0x3b, 0x90, 0xc6, 0x3a, 0x3b,
    0xb9, 0x09, 0x3a, 0x3b, 0x39, 0x48, 0x36, 0x3b, 0xb6, 0x44, 0x62, 0x3b,
    0x12, 0x00, 0x00, 0x00, 0x74, 0x66, 0x6c, 0x2e, 0x70, 0x73, 0x65, 0x75,
    0x64, 0x6f, 0x5f, 0x71, 0x63, 0x6f, 0x6e, 0x73, 0x74, 0x33, 0x00, 0x00,
    0x02, 0x00, 0x00, 0x00, 0x18, 0x00, 0x00, 0x00, 0x20, 0x00, 0x00, 0x00,
    0xfe, 0xfd, 0xff, 0xff, 0x00, 0x00, 0x00, 0x01, 0x14, 0x00, 0x00, 0x00,
    0x44, 0x01, 0x00, 0x00, 0x04, 0x00, 0x00, 0x00, 0x00, 0x00, 0x00, 0x02,
    0x50, 0x01, 0x00, 0x00, 0x34, 0xfd, 0xff, 0xff, 0x08, 0x00, 0x00, 0x00,
    0xc8, 0x00, 0x00, 0x00, 0x18, 0x00, 0x00, 0x00, 0x00, 0x00, 0x00, 0x00,
    0x00, 0x00, 0x00, 0x00, 0x00, 0x00, 0x00, 0x00, 0x00, 0x00, 0x00, 0x00,
    0x00, 0x00, 0x00, 0x00, 0x00, 0x00, 0x00, 0x00, 0x00, 0x00, 0x00, 0x00,
    0x00, 0x00, 0x00, 0x00, 0x00, 0x00, 0x00, 0x00, 0x00, 0x00, 0x00, 0x00,
    0x00, 0x00, 0x00, 0x00, 0x00, 0x00, 0x00, 0x00, 0x00, 0x00, 0x00, 0x00,
    0x00, 0x00, 0x00, 0x00, 0x00, 0x00, 0x00, 0x00, 0x00, 0x00, 0x00, 0x00,
    0x00, 0x00, 0x00, 0x00, 0x00, 0x00, 0x00, 0x00, 0x00, 0x00, 0x00, 0x00,
    0x00, 0x00, 0x00, 0x00, 0x00, 0x00, 0x00, 0x00, 0x00, 0x00, 0x00, 0x00,
    0x00, 0x00, 0x00, 0x00, 0x00, 0x00, 0x00, 0x00, 0x00, 0x00, 0x00, 0x00,
    0x00, 0x00, 0x00, 0x00, 0x00, 0x00, 0x00, 0x00, 0x00, 0x00, 0x00, 0x00,
    0x00, 0x00, 0x00, 0x00, 0x00, 0x00, 0x00, 0x00, 0x00, 0x00, 0x00, 0x00,
    0x00, 0x00, 0x00, 0x00, 0x00, 0x00, 0x00, 0x00, 0x00, 0x00, 0x00, 0x00,
    0x00, 0x00, 0x00, 0x00, 0x00, 0x00, 0x00, 0x00, 0x00, 0x00, 0x00, 0x00,
    0x00, 0x00, 0x00, 0x00, 0x00, 0x00, 0x00, 0x00, 0x00, 0x00, 0x00, 0x00,
    0x00, 0x00, 0x00, 0x00, 0x00, 0x00, 0x00, 0x00, 0x00, 0x00, 0x00, 0x00,
    0x00, 0x00, 0x00, 0x00, 0x00, 0x00, 0x00, 0x00, 0x00, 0x00, 0x00, 0x00,
    0x00, 0x00, 0x00, 0x00, 0x00, 0x00, 0x00, 0x00, 0x18, 0x00, 0x00, 0x00,
    0x0d, 0x15, 0x65, 0x37, 0x83, 0xb0, 0xd3, 0x37, 0x7a, 0xfc, 0xbd, 0x37,
    0x1a, 0x76, 0x92, 0x37, 0x0e, 0x48, 0x83, 0x37, 0x9e, 0xee, 0x90, 0x37,
    0x20, 0xd2, 0x8a, 0x37, 0x10, 0x12, 0xb7, 0x37, 0x87, 0x25, 0x7a, 0x37,
    0x0f, 0x45, 0x99, 0x37, 0x81, 0x02, 0x81, 0x37, 0x22, 0x38, 0x86, 0x37,
    0x5f, 0x57, 0x73, 0x37, 0x6f, 0x7a, 0x88, 0x37, 0xfc, 0x40, 0xa6, 0x37,
    0x6c, 0xd6, 0x92, 0x37, 0xbf, 0xc4, 0x75, 0x37, 0x51, 0x90, 0x81, 0x37,
    0x5c, 0x27, 0x83, 0x37, 0x75, 0x46, 0x7c, 0x37, 0x74, 0xe6, 0x80, 0x37,
    0x21, 0x64, 0x80, 0x37, 0x20, 0x99, 0x7b, 0x37, 0xcf, 0x27, 0x9c, 0x37,
    0x12, 0x00, 0x00, 0x00, 0x74, 0x66, 0x6c, 0x2e, 0x70, 0x73, 0x65, 0x75,
    0x64, 0x6f, 0x5f, 0x71, 0x63, 0x6f, 0x6e, 0x73, 0x74, 0x32, 0x00, 0x00,
    0x01, 0x00, 0x00, 0x00, 0x18, 0x00, 0x00, 0x00, 0x6e, 0xff, 0xff, 0xff,
    0x00, 0x00, 0x00, 0x01, 0x14, 0x00, 0x00, 0x00, 0x60, 0x00, 0x00, 0x00,
    0x03, 0x00, 0x00, 0x00, 0x00, 0x00, 0x00, 0x09, 0x6c, 0x00, 0x00, 0x00,
    0xa4, 0xfe, 0xff, 0xff, 0x08, 0x00, 0x00, 0x00, 0x30, 0x00, 0x00, 0x00,
    0x05, 0x00, 0x00, 0x00, 0x00, 0x00, 0x00, 0x00, 0x00, 0x00, 0x00, 0x00,
    0x00, 0x00, 0x00, 0x00, 0x00, 0x00, 0x00, 0x00, 0x00, 0x00, 0x00, 0x00,
    0x00, 0x00, 0x00, 0x00, 0x00, 0x00, 0x00, 0x00, 0x00, 0x00, 0x00, 0x00,
    0x00, 0x00, 0x00, 0x00, 0x00, 0x00, 0x00, 0x00, 0x05, 0x00, 0x00, 0x00,
    0xcf, 0xba, 0x86, 0x3b, 0x1a, 0x92, 0x8a, 0x3b, 0x35, 0x58, 0x7f, 0x3b,
    0x8a, 0xd8, 0x7d, 0x3b, 0x7d, 0x0c, 0x93, 0x3b, 0x12, 0x00, 0x00, 0x00,
    0x74, 0x66, 0x6c, 0x2e, 0x70, 0x73, 0x65, 0x75, 0x64, 0x6f, 0x5f, 0x71,
    0x63, 0x6f, 0x6e, 0x73, 0x74, 0x31, 0x00, 0x00, 0x02, 0x00, 0x00, 0x00,
    0x05, 0x00, 0x00, 0x00, 0x18, 0x00, 0x00, 0x00, 0x00, 0x00, 0x16, 0x00,
    0x1c, 0x00, 0x18, 0x00, 0x17, 0x00, 0x10, 0x00, 0x0c, 0x00, 0x08, 0x00,
    0x00, 0x00, 0x00, 0x00, 0x00, 0x00, 0x07, 0x00, 0x16, 0x00, 0x00, 0x00,
    0x00, 0x00, 0x00, 0x01, 0x14, 0x00, 0x00, 0x00, 0x60, 0x00, 0x00, 0x00,
    0x02, 0x00, 0x00, 0x00, 0x00, 0x00, 0x00, 0x02, 0x6c, 0x00, 0x00, 0x00,
    0x4c, 0xff, 0xff, 0xff, 0x08, 0x00, 0x00, 0x00, 0x30, 0x00, 0x00, 0x00,
    0x05, 0x00, 0x00, 0x00, 0x00, 0x00, 0x00, 0x00, 0x00, 0x00, 0x00, 0x00,
    0x00, 0x00, 0x00, 0x00, 0x00, 0x00, 0x00, 0x00, 0x00, 0x00, 0x00, 0x00,
    0x00, 0x00, 0x00, 0x00, 0x00, 0x00, 0x00, 0x00, 0x00, 0x00, 0x00, 0x00,
    0x00, 0x00, 0x00, 0x00, 0x00, 0x00, 0x00, 0x00, 0x05, 0x00, 0x00, 0x00,
    0x46, 0x0b, 0xcf, 0x37, 0x55, 0xf2, 0xd4, 0x37, 0xd8, 0x32, 0xc4, 0x37,
    0x0b, 0x0c, 0xc3, 0x37, 0xa5, 0xf9, 0xe1, 0x37, 0x11, 0x00, 0x00, 0x00,
    0x74, 0x66, 0x6c, 0x2e, 0x70, 0x73, 0x65, 0x75, 0x64, 0x6f, 0x5f, 0x71,
    0x63, 0x6f, 0x6e, 0x73, 0x74, 0x00, 0x00, 0x00, 0x01, 0x00, 0x00, 0x00,
    0x05, 0x00, 0x00, 0x00, 0x00, 0x00, 0x16, 0x00, 0x20, 0x00, 0x1c, 0x00,
    0x1b, 0x00, 0x14, 0x00, 0x10, 0x00, 0x0c, 0x00, 0x00, 0x00, 0x00, 0x00,
    0x08, 0x00, 0x07, 0x00, 0x16, 0x00, 0x00, 0x00, 0x00, 0x00, 0x00, 0x01,
    0x18, 0x00, 0x00, 0x00, 0x2c, 0x00, 0x00, 0x00, 0x4c, 0x00, 0x00, 0x00,
    0x01, 0x00, 0x00, 0x00, 0x00, 0x00, 0x00, 0x09, 0x64, 0x00, 0x00, 0x00,
    0x02, 0x00, 0x00, 0x00, 0xff, 0xff, 0xff, 0xff, 0x05, 0x00, 0x00, 0x00,
    0x0c, 0x00, 0x0c, 0x00, 0x00, 0x00, 0x00, 0x00, 0x08, 0x00, 0x04, 0x00,
    0x0c, 0x00, 0x00, 0x00, 0x08, 0x00, 0x00, 0x00, 0x14, 0x00, 0x00, 0x00,
    0x01, 0x00, 0x00, 0x00, 0x34, 0x00, 0x00, 0x00, 0x00, 0x00, 0x00, 0x00,
    0x00, 0x00, 0x00, 0x00, 0x01, 0x00, 0x00, 0x00, 0x1d, 0x26, 0x88, 0x3c,
    0x1e, 0x00, 0x00, 0x00, 0x73, 0x65, 0x72, 0x76, 0x69, 0x6e, 0x67, 0x5f,
    0x64, 0x65, 0x66, 0x61, 0x75, 0x6c, 0x74, 0x5f, 0x6b, 0x65, 0x72, 0x61,
    0x73, 0x5f, 0x74, 0x65, 0x6e, 0x73, 0x6f, 0x72, 0x3a, 0x30, 0x00, 0x00,
    0x02, 0x00, 0x00, 0x00, 0x01, 0x00, 0x00, 0x00, 0x05, 0x00, 0x00, 0x00,
    0x01, 0x00, 0x00, 0x00, 0x10, 0x00, 0x00, 0x00, 0x0c, 0x00, 0x10, 0x00,
    0x0f, 0x00, 0x00, 0x00, 0x08, 0x00, 0x04, 0x00, 0x0c, 0x00, 0x00, 0x00,
    0x09, 0x00, 0x00, 0x00, 0x04, 0x00, 0x00, 0x00, 0x00, 0x00, 0x00, 0x09};
unsigned int model_tflite_len = 4872;
