unsigned char model_tflite[] = {
    0x1c, 0x00, 0x00, 0x00, 0x54, 0x46, 0x4c, 0x33, 0x14, 0x00, 0x20, 0x00,
    0x1c, 0x00, 0x18, 0x00, 0x14, 0x00, 0x10, 0x00, 0x0c, 0x00, 0x00, 0x00,
    0x08, 0x00, 0x04, 0x00, 0x14, 0x00, 0x00, 0x00, 0x1c, 0x00, 0x00, 0x00,
    0x8c, 0x00, 0x00, 0x00, 0xe4, 0x00, 0x00, 0x00, 0xd0, 0x06, 0x00, 0x00,
    0xe0, 0x06, 0x00, 0x00, 0x30, 0x0d, 0x00, 0x00, 0x03, 0x00, 0x00, 0x00,
    0x01, 0x00, 0x00, 0x00, 0x10, 0x00, 0x00, 0x00, 0x00, 0x00, 0x0a, 0x00,
    0x10, 0x00, 0x0c, 0x00, 0x08, 0x00, 0x04, 0x00, 0x0a, 0x00, 0x00, 0x00,
    0x0c, 0x00, 0x00, 0x00, 0x1c, 0x00, 0x00, 0x00, 0x38, 0x00, 0x00, 0x00,
    0x0f, 0x00, 0x00, 0x00, 0x73, 0x65, 0x72, 0x76, 0x69, 0x6e, 0x67, 0x5f,
    0x64, 0x65, 0x66, 0x61, 0x75, 0x6c, 0x74, 0x00, 0x01, 0x00, 0x00, 0x00,
    0x04, 0x00, 0x00, 0x00, 0x9c, 0xff, 0xff, 0xff, 0x09, 0x00, 0x00, 0x00,
    0x04, 0x00, 0x00, 0x00, 0x07, 0x00, 0x00, 0x00, 0x64, 0x65, 0x6e, 0x73,
    0x65, 0x5f, 0x32, 0x00, 0x01, 0x00, 0x00, 0x00, 0x04, 0x00, 0x00, 0x00,
    0xc6, 0xf9, 0xff, 0xff, 0x04, 0x00, 0x00, 0x00, 0x07, 0x00, 0x00, 0x00,
    0x69, 0x6e, 0x70, 0x75, 0x74, 0x5f, 0x31, 0x00, 0x02, 0x00, 0x00, 0x00,
    0x34, 0x00, 0x00, 0x00, 0x04, 0x00, 0x00, 0x00, 0xdc, 0xff, 0xff, 0xff,
    0x0c, 0x00, 0x00, 0x00, 0x04, 0x00, 0x00, 0x00, 0x13, 0x00, 0x00, 0x00,
    0x43, 0x4f, 0x4e, 0x56, 0x45, 0x52, 0x53, 0x49, 0x4f, 0x4e, 0x5f, 0x4d,
    0x45, 0x54, 0x41, 0x44, 0x41, 0x54, 0x41, 0x00, 0x08, 0x00, 0x0c, 0x00,
    0x08, 0x00, 0x04, 0x00, 0x08, 0x00, 0x00, 0x00, 0x0b, 0x00, 0x00, 0x00,
    0x04, 0x00, 0x00, 0x00, 0x13, 0x00, 0x00, 0x00, 0x6d, 0x69, 0x6e, 0x5f,
    0x72, 0x75, 0x6e, 0x74, 0x69, 0x6d, 0x65, 0x5f, 0x76, 0x65, 0x72, 0x73,
    0x69, 0x6f, 0x6e, 0x00, 0x0d, 0x00, 0x00, 0x00, 0xe8, 0x05, 0x00, 0x00,
    0xe0, 0x05, 0x00, 0x00, 0xc4, 0x05, 0x00, 0x00, 0x64, 0x05, 0x00, 0x00,
    0xf4, 0x04, 0x00, 0x00, 0xe4, 0x01, 0x00, 0x00, 0x54, 0x01, 0x00, 0x00,
    0xa4, 0x00, 0x00, 0x00, 0x9c, 0x00, 0x00, 0x00, 0x94, 0x00, 0x00, 0x00,
    0x8c, 0x00, 0x00, 0x00, 0x6c, 0x00, 0x00, 0x00, 0x04, 0x00, 0x00, 0x00,
    0x6e, 0xfa, 0xff, 0xff, 0x04, 0x00, 0x00, 0x00, 0x58, 0x00, 0x00, 0x00,
    0x0c, 0x00, 0x00, 0x00, 0x08, 0x00, 0x0e, 0x00, 0x08, 0x00, 0x04, 0x00,
    0x08, 0x00, 0x00, 0x00, 0x10, 0x00, 0x00, 0x00, 0x28, 0x00, 0x00, 0x00,
    0x00, 0x00, 0x06, 0x00, 0x08, 0x00, 0x04, 0x00, 0x06, 0x00, 0x00, 0x00,
    0x04, 0x00, 0x00, 0x00, 0x01, 0x00, 0x00, 0x00, 0xeb, 0x03, 0x00, 0x00,
    0x00, 0x00, 0x0a, 0x00, 0x10, 0x00, 0x0c, 0x00, 0x08, 0x00, 0x04, 0x00,
    0x0a, 0x00, 0x00, 0x00, 0x02, 0x00, 0x00, 0x00, 0x02, 0x00, 0x00, 0x00,
    0x04, 0x00, 0x00, 0x00, 0x06, 0x00, 0x00, 0x00, 0x32, 0x2e, 0x31, 0x32,
    0x2e, 0x30, 0x00, 0x00, 0xd2, 0xfa, 0xff, 0xff, 0x04, 0x00, 0x00, 0x00,
    0x10, 0x00, 0x00, 0x00, 0x31, 0x2e, 0x31, 0x34, 0x2e, 0x30, 0x00, 0x00,
    0x00, 0x00, 0x00, 0x00, 0x00, 0x00, 0x00, 0x00, 0x54, 0xfa, 0xff, 0xff,
    0x58, 0xfa, 0xff, 0xff, 0x5c, 0xfa, 0xff, 0xff, 0xfa, 0xfa, 0xff, 0xff,
    0x04, 0x00, 0x00, 0x00, 0xa0, 0x00, 0x00, 0x00, 0xc9, 0xb0, 0x68, 0x65,
    0x47, 0x43, 0xa9, 0x1a, 0xc4, 0xf6, 0xeb, 0x46, 0x4a, 0xa1, 0x78, 0xf5,
    0x5c, 0xb9, 0x4b, 0x0d, 0x26, 0x09, 0x1c, 0xcc, 0xdd, 0x61, 0xb8, 0xae,
    0xaf, 0x49, 0x59, 0x0d, 0xbf, 0x5d, 0x3a, 0xa1, 0x20, 0x60, 0xa2, 0xb1,
    0x11, 0xdd, 0x32, 0xb8, 0xfe, 0xd4, 0xb8, 0x35, 0x96, 0xc7, 0x65, 0xa2,
    0x5f, 0xeb, 0x3c, 0xc0, 0x21, 0xd5, 0xe5, 0x59, 0x96, 0xfe, 0x26, 0x6f,
    0x91, 0xf9, 0x22, 0x30, 0xa5, 0x38, 0x65, 0x2a, 0xcb, 0x84, 0x73, 0x56,
    0xf6, 0xfe, 0xd4, 0x27, 0x20, 0xe6, 0xfe, 0xcc, 0x2c, 0xe6, 0xc4, 0x03,
    0x8c, 0x92, 0x2f, 0x9a, 0xdb, 0xd4, 0x19, 0x7e, 0x93, 0xc0, 0x7f, 0x23,
    0xaf, 0xd9, 0x26, 0xf3, 0xd3, 0x12, 0x06, 0x36, 0x43, 0x43, 0x1c, 0x23,
    0xdc, 0xab, 0x53, 0x40, 0xab, 0xe8, 0xca, 0x93, 0xdf, 0x17, 0x10, 0xa1,
    0x06, 0xad, 0xec, 0xa1, 0x41, 0x14, 0x30, 0x28, 0xc3, 0xf9, 0xc3, 0x99,
    0xc0, 0x94, 0x27, 0xc8, 0xbb, 0x73, 0x44, 0x4e, 0xd5, 0xcc, 0x70, 0xf4,
    0xe1, 0x1b, 0x94, 0x38, 0xe6, 0x78, 0x73, 0xbf, 0xcd, 0x09, 0x45, 0x71,
    0xa6, 0xfb, 0xff, 0xff, 0x04, 0x00, 0x00, 0x00, 0x80, 0x00, 0x00, 0x00,
    0x38, 0xfb, 0xff, 0xff, 0xf6, 0xfd, 0xff, 0xff, 0x8e, 0x0b, 0x00, 0x00,
    0xa6, 0xf9, 0xff, 0xff, 0xf1, 0x00, 0x00, 0x00, 0x60, 0x05, 0x00, 0x00,
    0xec, 0xfe, 0xff, 0xff, 0x4f, 0x00, 0x00, 0x00, 0x49, 0xfc, 0xff, 0xff,
    0x33, 0x00, 0x00, 0x00, 0x0b, 0xf8, 0xff, 0xff, 0xc2, 0xfc, 0xff, 0xff,
    0x8a, 0x07, 0x00, 0x00, 0x27, 0xfd, 0xff, 0xff, 0x45, 0xfc, 0xff, 0xff,
    0xdb, 0xf8, 0xff, 0xff, 0x25, 0x09, 0x00, 0x00, 0x00, 0x00, 0x00, 0x00,
    0x15, 0x08, 0x00, 0x00, 0x4c, 0x08, 0x00, 0x00, 0x20, 0xff, 0xff, 0xff,
    0xbc, 0x02, 0x00, 0x00, 0x56, 0xfd, 0xff, 0xff, 0x2b, 0xfc, 0xff, 0xff,
    0xe9, 0xff, 0xff, 0xff, 0x05, 0xfc, 0xff, 0xff, 0xec, 0xf9, 0xff, 0xff,
    0x00, 0x00, 0x00, 0x00, 0x9c, 0xff, 0xff, 0xff, 0x2c, 0x01, 0x00, 0x00,
    0xb6, 0x01, 0x00, 0x00, 0xd8, 0x04, 0x00, 0x00, 0x32, 0xfc, 0xff, 0xff,
    0x04, 0x00, 0x00, 0x00, 0x00, 0x03, 0x00, 0x00, 0x8b, 0x31, 0xdf, 0x4f,
    0x11, 0x18, 0x14, 0x08, 0x4e, 0xae, 0x3a, 0xf1, 0x53, 0x28, 0x53, 0x9a,
    0xf6, 0x53, 0xc2, 0x61, 0xc4, 0xd4, 0xb0, 0x58, 0x67, 0xe5, 0xe6, 0x38,
    0x3b, 0x9b, 0xd3, 0x10, 0x03, 0xd8, 0x0a, 0xae, 0xfa, 0xf5, 0xad, 0xad,
    0xb5, 0xcc, 0xf0, 0xd6, 0x1b, 0xe1, 0xc3, 0xcc, 0x6d, 0xcb, 0xfd, 0xf2,
    0x99, 0x54, 0xa5, 0x0b, 0x9c, 0x5c, 0x12, 0x0b, 0xb8, 0x04, 0x1c, 0x98,
    0x2e, 0x0f, 0x11, 0x3b, 0x5d, 0x8d, 0xc9, 0x10, 0x6d, 0xd8, 0x3c, 0xdb,
    0x3a, 0x6f, 0x5b, 0x69, 0x95, 0x67, 0xfc, 0x9a, 0x43, 0x63, 0xd7, 0x4b,
    0xd2, 0xc9, 0xa5, 0xb5, 0xbc, 0xea, 0x62, 0x04, 0x11, 0xdf, 0xed, 0x50,
    0xbf, 0x9c, 0xaf, 0xfc, 0x07, 0x0e, 0xfe, 0x1d, 0x1f, 0x48, 0x42, 0x1c,
    0x9e, 0x1a, 0xe5, 0x0a, 0x4a, 0x6d, 0xf1, 0x38, 0x1f, 0x9e, 0x6a, 0xf7,
    0x12, 0xdc, 0x50, 0x4d, 0x02, 0x0e, 0x0f, 0x45, 0xde, 0x02, 0xa4, 0xc0,
    0xc7, 0xc9, 0x51, 0x46, 0x1e, 0x98, 0x31, 0xea, 0x3e, 0x3b, 0xdf, 0x62,
    0x6d, 0xed, 0xbd, 0x55, 0xd1, 0xd6, 0x93, 0x0e, 0x43, 0xf2, 0xe9, 0xd4,
    0x93, 0x25, 0xd5, 0x39, 0x42, 0x14, 0xab, 0xbc, 0x5d, 0x9b, 0xed, 0x24,
    0x35, 0x4f, 0x46, 0x6a, 0xba, 0xf2, 0x3d, 0xac, 0x55, 0x4c, 0x34, 0x1a,
    0x2f, 0x1d, 0x29, 0xf5, 0x3c, 0xaf, 0x6b, 0xe0, 0xd4, 0xdc, 0xc8, 0x15,
    0xed, 0x08, 0x15, 0x34, 0x45, 0x8c, 0x5a, 0x5c, 0xbd, 0x1a, 0x40, 0x23,
    0x01, 0xcc, 0x92, 0x65, 0x24, 0x54, 0x00, 0x56, 0xf2, 0x48, 0x48, 0x38,
    0x03, 0x08, 0x9f, 0xb0, 0xa7, 0x69, 0x74, 0x4b, 0x08, 0xe2, 0xa0, 0xcd,
    0xcc, 0x16, 0x77, 0xc9, 0x08, 0x0f, 0x1f, 0xb8, 0x64, 0x1d, 0xa6, 0x45,
    0x09, 0x4b, 0xe2, 0x53, 0xc3, 0xe5, 0x5f, 0xa7, 0x56, 0xed, 0xe8, 0x64,
    0x91, 0x90, 0x0c, 0xa8, 0x10, 0xae, 0x41, 0x9f, 0x19, 0x58, 0x2d, 0x97,
    0xdb, 0x9a, 0x2f, 0xdd, 0xa2, 0xc5, 0x9e, 0xf9, 0x94, 0xcc, 0xe7, 0x15,
    0x12, 0x26, 0xe2, 0x59, 0xd2, 0x34, 0x26, 0xe9, 0xca, 0x54, 0xf5, 0xf3,
    0x90, 0x6f, 0xdd, 0xbb, 0x4c, 0x90, 0x1a, 0x36, 0x77, 0x1c, 0x6f, 0x55,
    0x9e, 0x54, 0x1b, 0x06, 0x15, 0x17, 0xc2, 0xcf, 0x61, 0x26, 0xf3, 0xf4,
    0xf5, 0xc6, 0xa0, 0x6c, 0xf4, 0x45, 0x00, 0x1b, 0x30, 0xf6, 0x08, 0xdc,
    0x8c, 0x16, 0x2d, 0xbe, 0xeb, 0x36, 0x37, 0x53, 0x09, 0x3c, 0x93, 0x9b,
    0xa7, 0xc9, 0x85, 0xcf, 0x3d, 0x95, 0xa7, 0x4e, 0x2c, 0x5d, 0xf1, 0xb6,
    0x39, 0x9d, 0x05, 0xae, 0x2b, 0x95, 0x2a, 0x1b, 0xf1, 0x72, 0xde, 0x52,
    0x35, 0x5a, 0x91, 0xa8, 0x1b, 0x07, 0x39, 0x72, 0xfb, 0xc5, 0x23, 0xc0,
    0xbd, 0x6c, 0x1a, 0x23, 0x5a, 0x2e, 0xff, 0xd6, 0x4a, 0xad, 0x0e, 0xdb,
    0x60, 0xb2, 0xa4, 0xcd, 0xcc, 0xe4, 0x2a, 0x93, 0x61, 0x21, 0x3f, 0xcc,
    0x37, 0x91, 0x2c, 0x05, 0xc5, 0x93, 0xf2, 0x42, 0x10, 0x30, 0x41, 0xef,
    0x21, 0xc3, 0x36, 0xe9, 0xbe, 0x62, 0x55, 0x39, 0xd2, 0x0f, 0x48, 0xa9,
    0x0b, 0x49, 0x49, 0x2a, 0x91, 0xe1, 0x48, 0x9d, 0x58, 0x68, 0xb2, 0x3e,
    0xb3, 0x2d, 0x52, 0xe3, 0x94, 0x2e, 0xfd, 0x5e, 0x4a, 0x10, 0xe4, 0xaf,
    0xb9, 0x5a, 0x24, 0x22, 0x15, 0x4c, 0x63, 0xfc, 0xe7, 0xaa, 0x1f, 0xc5,
    0x6e, 0x4e, 0xe6, 0xea, 0x78, 0x00, 0x1c, 0x6f, 0xa5, 0x70, 0xdf, 0x09,
    0x77, 0xd9, 0x99, 0x12, 0xb7, 0x06, 0x5a, 0x2d, 0x9f, 0x18, 0xaf, 0x1b,
    0x98, 0xb1, 0x2a, 0x9d, 0x01, 0xdb, 0x47, 0xc7, 0x96, 0x2e, 0x57, 0x09,
    0x5d, 0xd4, 0x0a, 0xf5, 0x8f, 0xfc, 0x3d, 0x5b, 0x20, 0x11, 0x43, 0x15,
    0x99, 0xcd, 0xe4, 0xd7, 0xdb, 0xe2, 0x2f, 0xf0, 0xe7, 0xbc, 0x40, 0x3c,
    0x09, 0x9c, 0xa2, 0x2f, 0xbf, 0x60, 0x6d, 0x0f, 0xc4, 0xd4, 0xa2, 0xc9,
    0xf8, 0xc0, 0xf6, 0x5c, 0x4f, 0xa2, 0x00, 0x2e, 0x4f, 0xed, 0xc8, 0x55,
    0xcc, 0x67, 0xec, 0xa4, 0xc1, 0xc5, 0x65, 0x29, 0x21, 0x14, 0x07, 0xf5,
    0xda, 0x03, 0x69, 0xc4, 0xb6, 0x66, 0x0c, 0x44, 0x3f, 0xcc, 0x53, 0x03,
    0x5b, 0x22, 0x68, 0x37, 0x8f, 0xbb, 0x53, 0x66, 0xef, 0xed, 0x48, 0xfe,
    0x64, 0x4f, 0x18, 0x69, 0x6a, 0xa7, 0xfc, 0x0b, 0x29, 0x9d, 0xba, 0xb4,
    0x07, 0x28, 0xa5, 0x54, 0x3c, 0xab, 0xe5, 0x40, 0x6e, 0x58, 0x6d, 0xbc,
    0xd8, 0x55, 0xef, 0x0e, 0x9a, 0x56, 0x03, 0xcd, 0x67, 0x03, 0x36, 0x22,
    0x78, 0x5f, 0xc3, 0x20, 0x55, 0x39, 0xec, 0xea, 0x28, 0x37, 0x41, 0x70,
    0xf2, 0x6f, 0x00, 0xf3, 0xe4, 0x61, 0x9c, 0x0d, 0xc1, 0x17, 0x7f, 0x2c,
    0x28, 0x43, 0x4d, 0x16, 0xaf, 0xec, 0xd4, 0x36, 0xb9, 0x64, 0xe4, 0xb2,
    0x98, 0x0d, 0x53, 0x69, 0xe1, 0x15, 0x4f, 0x64, 0xbc, 0x9c, 0x52, 0xe8,
    0xa2, 0xcd, 0xbf, 0xaa, 0xfd, 0xed, 0xb8, 0xbd, 0x3f, 0x45, 0xe4, 0x43,
    0xea, 0x4b, 0x45, 0x06, 0xe7, 0x17, 0x6c, 0xa2, 0xf9, 0xce, 0x01, 0x4f,
    0x29, 0x38, 0x98, 0xa4, 0xe1, 0xac, 0x68, 0xe6, 0x69, 0x2f, 0x95, 0xcd,
    0x30, 0x18, 0xe7, 0xfd, 0x09, 0x41, 0x9a, 0x34, 0xd2, 0x5c, 0x01, 0x97,
    0x09, 0xb6, 0xa4, 0x90, 0xa6, 0xae, 0xab, 0x8f, 0xa0, 0x21, 0x27, 0x5d,
    0xa1, 0xd1, 0x5b, 0xdb, 0x33, 0x93, 0x8f, 0xec, 0xb3, 0xb5, 0xc6, 0x3f,
    0xc5, 0xad, 0x13, 0x56, 0xc9, 0x0e, 0x70, 0xd7, 0xbf, 0x06, 0xd4, 0xf9,
    0xca, 0x73, 0xa4, 0x9f, 0x01, 0xc5, 0xb1, 0xf5, 0x40, 0xb9, 0x98, 0xe8,
    0x6c, 0xf0, 0x62, 0x3a, 0x3b, 0x03, 0x1b, 0x43, 0x3e, 0xff, 0xff, 0xff,
    0x04, 0x00, 0x00, 0x00, 0x60, 0x00, 0x00, 0x00, 0x87, 0xfb, 0xff, 0xff,
    0x00, 0x00, 0x00, 0x00, 0x78, 0xfb, 0xff, 0xff, 0x66, 0x00, 0x00, 0x00,
    0x15, 0x04, 0x00, 0x00, 0x3b, 0xfa, 0xff, 0xff, 0x46, 0xf5, 0xff, 0xff,
    0x94, 0x09, 0x00, 0x00, 0xe0, 0xfe, 0xff, 0xff, 0x73, 0x00, 0x00, 0x00,
    0xff, 0xf3, 0xff, 0xff, 0xef, 0xf8, 0xff, 0xff, 0xf8, 0x05, 0x00, 0x00,
    0x1e, 0x00, 0x00, 0x00, 0xeb, 0x07, 0x00, 0x00, 0xd0, 0xfd, 0xff, 0xff,
    0x7b, 0x09, 0x00, 0x00, 0x1d, 0xfb, 0xff, 0xff, 0xdb, 0x13, 0x00, 0x00,
    0x15, 0x10, 0x00, 0x00, 0x17, 0xff, 0xff, 0xff, 0xa8, 0xfa, 0xff, 0xff,
    0x18, 0xfc, 0xff, 0xff, 0xf5, 0x01, 0x00, 0x00, 0xaa, 0xff, 0xff, 0xff,
    0x04, 0x00, 0x00, 0x00, 0x48, 0x00, 0x00, 0x00, 0x78, 0x58, 0x68, 0xc7,
    0xc0, 0x97, 0x17, 0xd1, 0x36, 0x93, 0xe2, 0xfa, 0x1d, 0xf5, 0x9d, 0x38,
    0x61, 0x63, 0xb7, 0xde, 0x52, 0x1b, 0x2a, 0x53, 0xb5, 0x2a, 0xf4, 0x5a,
    0x1c, 0x5e, 0x44, 0x9d, 0xbb, 0x01, 0x67, 0x34, 0x97, 0x0b, 0x81, 0x47,
    0xd5, 0x1d, 0xe0, 0x8b, 0x31, 0x00, 0xc4, 0x9d, 0xd6, 0x5f, 0x9e, 0xf9,
    0xf7, 0x93, 0xe0, 0xc6, 0x1e, 0x69, 0xab, 0xd1, 0x60, 0x55, 0xcd, 0xa8,
    0xee, 0x17, 0x4b, 0x02, 0x0f, 0xc0, 0xcf, 0x45, 0x00, 0x00, 0x06, 0x00,
    0x08, 0x00, 0x04, 0x00, 0x06, 0x00, 0x00, 0x00, 0x04, 0x00, 0x00, 0x00,
    0x0c, 0x00, 0x00, 0x00, 0xe9, 0xfb, 0xff, 0xff, 0x00, 0xef, 0xff, 0xff,
    0x00, 0x00, 0x00, 0x00, 0x84, 0xff, 0xff, 0xff, 0x88, 0xff, 0xff, 0xff,
    0x0f, 0x00, 0x00, 0x00, 0x4d, 0x4c, 0x49, 0x52, 0x20, 0x43, 0x6f, 0x6e,
    0x76, 0x65, 0x72, 0x74, 0x65, 0x64, 0x2e, 0x00, 0x01, 0x00, 0x00, 0x00,
    0x14, 0x00, 0x00, 0x00, 0x00, 0x00, 0x0e, 0x00, 0x18, 0x00, 0x14, 0x00,
    0x10, 0x00, 0x0c, 0x00, 0x08, 0x00, 0x04, 0x00, 0x0e, 0x00, 0x00, 0x00,
    0x14, 0x00, 0x00, 0x00, 0x1c, 0x00, 0x00, 0x00, 0xdc, 0x00, 0x00, 0x00,
    0xe0, 0x00, 0x00, 0x00, 0xe4, 0x00, 0x00, 0x00, 0x04, 0x00, 0x00, 0x00,
    0x6d, 0x61, 0x69, 0x6e, 0x00, 0x00, 0x00, 0x00, 0x03, 0x00, 0x00, 0x00,
    0x84, 0x00, 0x00, 0x00, 0x3c, 0x00, 0x00, 0x00, 0x04, 0x00, 0x00, 0x00,
    0x96, 0xff, 0xff, 0xff, 0x14, 0x00, 0x00, 0x00, 0x00, 0x00, 0x00, 0x08,
    0x10, 0x00, 0x00, 0x00, 0x14, 0x00, 0x00, 0x00, 0x04, 0x00, 0x04, 0x00,
    0x04, 0x00, 0x00, 0x00, 0x01, 0x00, 0x00, 0x00, 0x09, 0x00, 0x00, 0x00,
    0x03, 0x00, 0x00, 0x00, 0x08, 0x00, 0x00, 0x00, 0x02, 0x00, 0x00, 0x00,
    0x01, 0x00, 0x00, 0x00, 0xca, 0xff, 0xff, 0xff, 0x10, 0x00, 0x00, 0x00,
    0x00, 0x00, 0x00, 0x08, 0x10, 0x00, 0x00, 0x00, 0x14, 0x00, 0x00, 0x00,
    0xba, 0xff, 0xff, 0xff, 0x00, 0x00, 0x00, 0x01, 0x01, 0x00, 0x00, 0x00,
    0x08, 0x00, 0x00, 0x00, 0x03, 0x00, 0x00, 0x00, 0x07, 0x00, 0x00, 0x00,
    0x04, 0x00, 0x00, 0x00, 0x03, 0x00, 0x00, 0x00, 0x00, 0x00, 0x0e, 0x00,
    0x16, 0x00, 0x00, 0x00, 0x10, 0x00, 0x0c, 0x00, 0x0b, 0x00, 0x04, 0x00,
    0x0e, 0x00, 0x00, 0x00, 0x18, 0x00, 0x00, 0x00, 0x00, 0x00, 0x00, 0x08,
    0x18, 0x00, 0x00, 0x00, 0x1c, 0x00, 0x00, 0x00, 0x00, 0x00, 0x06, 0x00,
    0x08, 0x00, 0x07, 0x00, 0x06, 0x00, 0x00, 0x00, 0x00, 0x00, 0x00, 0x01,
    0x01, 0x00, 0x00, 0x00, 0x07, 0x00, 0x00, 0x00, 0x03, 0x00, 0x00, 0x00,
    0x00, 0x00, 0x00, 0x00, 0x06, 0x00, 0x00, 0x00, 0x05, 0x00, 0x00, 0x00,
    0x01, 0x00, 0x00, 0x00, 0x09, 0x00, 0x00, 0x00, 0x01, 0x00, 0x00, 0x00,
    0x00, 0x00, 0x00, 0x00, 0x0a, 0x00, 0x00, 0x00, 0xbc, 0x04, 0x00, 0x00,
    0x2c, 0x04, 0x00, 0x00, 0xa8, 0x03, 0x00, 0x00, 0x2c, 0x03, 0x00, 0x00,
    0xc0, 0x02, 0x00, 0x00, 0x4c, 0x02, 0x00, 0x00, 0xe0, 0x01, 0x00, 0x00,
    0x34, 0x01, 0x00, 0x00, 0x80, 0x00, 0x00, 0x00, 0x04, 0x00, 0x00, 0x00,
    0x82, 0xfb, 0xff, 0xff, 0x00, 0x00, 0x00, 0x01, 0x18, 0x00, 0x00, 0x00,
    0x20, 0x00, 0x00, 0x00, 0x3c, 0x00, 0x00, 0x00, 0x0a, 0x00, 0x00, 0x00,
    0x00, 0x00, 0x00, 0x09, 0x50, 0x00, 0x00, 0x00, 0x02, 0x00, 0x00, 0x00,
    0xff, 0xff, 0xff, 0xff, 0x03, 0x00, 0x00, 0x00, 0x6c, 0xfb, 0xff, 0xff,
    0x08, 0x00, 0x00, 0x00, 0x10, 0x00, 0x00, 0x00, 0x01, 0x00, 0x00, 0x00,
    0x7f, 0x00, 0x00, 0x00, 0x00, 0x00, 0x00, 0x00, 0x01, 0x00, 0x00, 0x00,
    0x5e, 0x9f, 0x05, 0x3b, 0x19, 0x00, 0x00, 0x00, 0x53, 0x74, 0x61, 0x74,
    0x65, 0x66, 0x75, 0x6c, 0x50, 0x61, 0x72, 0x74, 0x69, 0x74, 0x69, 0x6f,
    0x6e, 0x65, 0x64, 0x43, 0x61, 0x6c, 0x6c, 0x3a, 0x30, 0x00, 0x00, 0x00,
    0x02, 0x00, 0x00, 0x00, 0x01, 0x00, 0x00, 0x00, 0x03, 0x00, 0x00, 0x00,
    0xfa, 0xfb, 0xff, 0xff, 0x00, 0x00, 0x00, 0x01, 0x18, 0x00, 0x00, 0x00,
    0x20, 0x00, 0x00, 0x00, 0x40, 0x00, 0x00, 0x00, 0x09, 0x00, 0x00, 0x00,
    0x00, 0x00, 0x00, 0x09, 0x88, 0x00, 0x00, 0x00, 0x02, 0x00, 0x00, 0x00,
    0xff, 0xff, 0xff, 0xff, 0x18, 0x00, 0x00, 0x00, 0xe4, 0xfb, 0xff, 0xff,
    0x08, 0x00, 0x00, 0x00, 0x14, 0x00, 0x00, 0x00, 0x01, 0x00, 0x00, 0x00,
    0x80, 0xff, 0xff, 0xff, 0xff, 0xff, 0xff, 0xff, 0x00, 0x00, 0x00, 0x00,
    0x01, 0x00, 0x00, 0x00, 0x98, 0x66, 0x2c, 0x3b, 0x4c, 0x00, 0x00, 0x00,
    0x73, 0x65, 0x71, 0x75, 0x65, 0x6e, 0x74, 0x69, 0x61, 0x6c, 0x2f, 0x64,
    0x65, 0x6e, 0x73, 0x65, 0x5f, 0x31, 0x2f, 0x4d, 0x61, 0x74, 0x4d, 0x75,
    0x6c, 0x3b, 0x73, 0x65, 0x71, 0x75, 0x65, 0x6e, 0x74, 0x69, 0x61, 0x6c,
    0x2f, 0x64, 0x65, 0x6e, 0x73, 0x65, 0x5f, 0x31, 0x2f, 0x52, 0x65, 0x6c,
    0x75, 0x3b, 0x73, 0x65, 0x71, 0x75, 0x65, 0x6e, 0x74, 0x69, 0x61, 0x6c,
    0x2f, 0x64, 0x65, 0x6e, 0x73, 0x65, 0x5f, 0x31, 0x2f, 0x42, 0x69, 0x61,
    0x73, 0x41, 0x64, 0x64, 0x00, 0x00, 0x00, 0x00, 0x02, 0x00, 0x00, 0x00,
    0x01, 0x00, 0x00, 0x00, 0x18, 0x00, 0x00, 0x00, 0xaa, 0xfc, 0xff, 0xff,
    0x00, 0x00, 0x00, 0x01, 0x18, 0x00, 0x00, 0x00, 0x20, 0x00, 0x00, 0x00,
    0x40, 0x00, 0x00, 0x00, 0x08, 0x00, 0x00, 0x00, 0x00, 0x00, 0x00, 0x09,
    0x80, 0x00, 0x00, 0x00, 0x02, 0x00, 0x00, 0x00, 0xff, 0xff, 0xff, 0xff,
    0x20, 0x00, 0x00, 0x00, 0x94, 0xfc, 0xff, 0xff, 0x08, 0x00, 0x00, 0x00,
    0x14, 0x00, 0x00, 0x00, 0x01, 0x00, 0x00, 0x00, 0x80, 0xff, 0xff, 0xff,
    0xff, 0xff, 0xff, 0xff, 0x00, 0x00, 0x00, 0x00, 0x01, 0x00, 0x00, 0x00,
    0x2f, 0xb2, 0x43, 0x3b, 0x46, 0x00, 0x00, 0x00, 0x73, 0x65, 0x71, 0x75,
    0x65, 0x6e, 0x74, 0x69, 0x61, 0x6c, 0x2f, 0x64, 0x65, 0x6e, 0x73, 0x65,
    0x2f, 0x4d, 0x61, 0x74, 0x4d, 0x75, 0x6c, 0x3b, 0x73, 0x65, 0x71, 0x75,
    0x65, 0x6e, 0x74, 0x69, 0x61, 0x6c, 0x2f, 0x64, 0x65, 0x6e, 0x73, 0x65,
    0x2f, 0x52, 0x65, 0x6c, 0x75, 0x3b, 0x73, 0x65, 0x71, 0x75, 0x65, 0x6e,
    0x74, 0x69, 0x61, 0x6c, 0x2f, 0x64, 0x65, 0x6e, 0x73, 0x65, 0x2f, 0x42,
    0x69, 0x61, 0x73, 0x41, 0x64, 0x64, 0x00, 0x00, 0x02, 0x00, 0x00, 0x00,
    0x01, 0x00, 0x00, 0x00, 0x20, 0x00, 0x00, 0x00, 0xde, 0xfd, 0xff, 0xff,
    0x00, 0x00, 0x00, 0x01, 0x14, 0x00, 0x00, 0x00, 0x34, 0x00, 0x00, 0x00,
    0x07, 0x00, 0x00, 0x00, 0x00, 0x00, 0x00, 0x09, 0x44, 0x00, 0x00, 0x00,
    0x2c, 0xfd, 0xff, 0xff, 0x08, 0x00, 0x00, 0x00, 0x14, 0x00, 0x00, 0x00,
    0x01, 0x00, 0x00, 0x00, 0x00, 0x00, 0x00, 0x00, 0x00, 0x00, 0x00, 0x00,
    0x00, 0x00, 0x00, 0x00, 0x01, 0x00, 0x00, 0x00, 0xf8, 0x0b, 0x5b, 0x3b,
    0x17, 0x00, 0x00, 0x00, 0x73, 0x65, 0x71, 0x75, 0x65, 0x6e, 0x74, 0x69,
    0x61, 0x6c, 0x2f, 0x64, 0x65, 0x6e, 0x73, 0x65, 0x2f, 0x4d, 0x61, 0x74,
    0x4d, 0x75, 0x6c, 0x00, 0x02, 0x00, 0x00, 0x00, 0x20, 0x00, 0x00, 0x00,
    0x05, 0x00, 0x00, 0x00, 0x46, 0xfe, 0xff, 0xff, 0x00, 0x00, 0x00, 0x01,
    0x14, 0x00, 0x00, 0x00, 0x30, 0x00, 0x00, 0x00, 0x06, 0x00, 0x00, 0x00,
    0x00, 0x00, 0x00, 0x02, 0x50, 0x00, 0x00, 0x00, 0x94, 0xfd, 0xff, 0xff,
    0x08, 0x00, 0x00, 0x00, 0x10, 0x00, 0x00, 0x00, 0x01, 0x00, 0x00, 0x00,
    0x00, 0x00, 0x00, 0x00, 0x00, 0x00, 0x00, 0x00, 0x01, 0x00, 0x00, 0x00,
    0xf5, 0x13, 0x5b, 0x37, 0x27, 0x00, 0x00, 0x00, 0x73, 0x65, 0x71, 0x75,
    0x65, 0x6e, 0x74, 0x69, 0x61, 0x6c, 0x2f, 0x64, 0x65, 0x6e, 0x73, 0x65,
    0x2f, 0x42, 0x69, 0x61, 0x73, 0x41, 0x64, 0x64, 0x2f, 0x52, 0x65, 0x61,
    0x64, 0x56, 0x61, 0x72, 0x69, 0x61, 0x62, 0x6c, 0x65, 0x4f, 0x70, 0x00,
    0x01, 0x00, 0x00, 0x00, 0x20, 0x00, 0x00, 0x00, 0xb6, 0xfe, 0xff, 0xff,
    0x00, 0x00, 0x00, 0x01, 0x14, 0x00, 0x00, 0x00, 0x30, 0x00, 0x00, 0x00,
    0x05, 0x00, 0x00, 0x00, 0x00, 0x00, 0x00, 0x09, 0x44, 0x00, 0x00, 0x00,
    0x04, 0xfe, 0xff, 0xff, 0x08, 0x00, 0x00, 0x00, 0x10, 0x00, 0x00, 0x00,
    0x01, 0x00, 0x00, 0x00, 0x00, 0x00, 0x00, 0x00, 0x00, 0x00, 0x00, 0x00,
    0x01, 0x00, 0x00, 0x00, 0xa6, 0xfe, 0x3b, 0x3b, 0x19, 0x00, 0x00, 0x00,
    0x73, 0x65, 0x71, 0x75, 0x65, 0x6e, 0x74, 0x69, 0x61, 0x6c, 0x2f, 0x64,
    0x65, 0x6e, 0x73, 0x65, 0x5f, 0x31, 0x2f, 0x4d, 0x61, 0x74, 0x4d, 0x75,
    0x6c, 0x00, 0x00, 0x00, 0x02, 0x00, 0x00, 0x00, 0x18, 0x00, 0x00, 0x00,
    0x20, 0x00, 0x00, 0x00, 0x1e, 0xff, 0xff, 0xff, 0x00, 0x00, 0x00, 0x01,
    0x14, 0x00, 0x00, 0x00, 0x34, 0x00, 0x00, 0x00, 0x04, 0x00, 0x00, 0x00,
    0x00, 0x00, 0x00, 0x02, 0x58, 0x00, 0x00, 0x00, 0x6c, 0xfe, 0xff, 0xff,
    0x08, 0x00, 0x00, 0x00, 0x14, 0x00, 0x00, 0x00, 0x01, 0x00, 0x00, 0x00,
    0x00, 0x00, 0x00, 0x00, 0x00, 0x00, 0x00, 0x00, 0x00, 0x00, 0x00, 0x00,
    0x01, 0x00, 0x00, 0x00, 0xd2, 0xb5, 0x0f, 0x37, 0x29, 0x00, 0x00, 0x00,
    0x73, 0x65, 0x71, 0x75, 0x65, 0x6e, 0x74, 0x69, 0x61, 0x6c, 0x2f, 0x64,
    0x65, 0x6e, 0x73, 0x65, 0x5f, 0x31, 0x2f, 0x42, 0x69, 0x61, 0x73, 0x41,
    0x64, 0x64, 0x2f, 0x52, 0x65, 0x61, 0x64, 0x56, 0x61, 0x72, 0x69, 0x61,
    0x62, 0x6c, 0x65, 0x4f, 0x70, 0x00, 0x00, 0x00, 0x01, 0x00, 0x00, 0x00,
    0x18, 0x00, 0x00, 0x00, 0x96, 0xff, 0xff, 0xff, 0x00, 0x00, 0x00, 0x01,
    0x14, 0x00, 0x00, 0x00, 0x30, 0x00, 0x00, 0x00, 0x03, 0x00, 0x00, 0x00,
    0x00, 0x00, 0x00, 0x09, 0x44, 0x00, 0x00, 0x00, 0xe4, 0xfe, 0xff, 0xff,
    0x08, 0x00, 0x00, 0x00, 0x10, 0x00, 0x00, 0x00, 0x01, 0x00, 0x00, 0x00,
    0x00, 0x00, 0x00, 0x00, 0x00, 0x00, 0x00, 0x00, 0x01, 0x00, 0x00, 0x00,
    0x19, 0x18, 0x75, 0x3b, 0x19, 0x00, 0x00, 0x00, 0x73, 0x65, 0x71, 0x75,
    0x65, 0x6e, 0x74, 0x69, 0x61, 0x6c, 0x2f, 0x64, 0x65, 0x6e, 0x73, 0x65,
    0x5f, 0x32, 0x2f, 0x4d, 0x61, 0x74, 0x4d, 0x75, 0x6c, 0x00, 0x00, 0x00,
    0x02, 0x00, 0x00, 0x00, 0x03, 0x00, 0x00, 0x00, 0x18, 0x00, 0x00, 0x00,
    0x00, 0x00, 0x16, 0x00, 0x1c, 0x00, 0x18, 0x00, 0x17, 0x00, 0x10, 0x00,
    0x0c, 0x00, 0x08, 0x00, 0x00, 0x00, 0x00, 0x00, 0x00, 0x00, 0x07, 0x00,
    0x16, 0x00, 0x00, 0x00, 0x00, 0x00, 0x00, 0x01, 0x14, 0x00, 0x00, 0x00,
    0x30, 0x00, 0x00, 0x00, 0x02, 0x00, 0x00, 0x00, 0x00, 0x00, 0x00, 0x02,
    0x54, 0x00, 0x00, 0x00, 0x64, 0xff, 0xff, 0xff, 0x08, 0x00, 0x00, 0x00,
    0x10, 0x00, 0x00, 0x00, 0x01, 0x00, 0x00, 0x00, 0x00, 0x00, 0x00, 0x00,
    0x00, 0x00, 0x00, 0x00, 0x01, 0x00, 0x00, 0x00, 0x6a, 0x0e, 0x25, 0x37,
    0x29, 0x00, 0x00, 0x00, 0x73, 0x65, 0x71, 0x75, 0x65, 0x6e, 0x74, 0x69,
    0x61, 0x6c, 0x2f, 0x64, 0x65, 0x6e, 0x73, 0x65, 0x5f, 0x32, 0x2f, 0x42,
    0x69, 0x61, 0x73, 0x41, 0x64, 0x64, 0x2f, 0x52, 0x65, 0x61, 0x64, 0x56,
    0x61, 0x72, 0x69, 0x61, 0x62, 0x6c, 0x65, 0x4f, 0x70, 0x00, 0x00, 0x00,
    0x01, 0x00, 0x00, 0x00, 0x03, 0x00, 0x00, 0x00, 0x00, 0x00, 0x16, 0x00,
    0x20, 0x00, 0x1c, 0x00, 0x1b, 0x00, 0x14, 0x00, 0x10, 0x00, 0x0c, 0x00,
    0x00, 0x00, 0x00, 0x00, 0x08, 0x00, 0x07, 0x00, 0x16, 0x00, 0x00, 0x00,
    0x00, 0x00, 0x00, 0x01, 0x18, 0x00, 0x00, 0x00, 0x2c, 0x00, 0x00, 0x00,
    0x48, 0x00, 0x00, 0x00, 0x01, 0x00, 0x00, 0x00, 0x00, 0x00, 0x00, 0x09,
    0x5c, 0x00, 0x00, 0x00, 0x02, 0x00, 0x00, 0x00, 0xff, 0xff, 0xff, 0xff,
    0x05, 0x00, 0x00, 0x00, 0x0c, 0x00, 0x0c, 0x00, 0x00, 0x00, 0x00, 0x00,
    0x08, 0x00, 0x04, 0x00, 0x0c, 0x00, 0x00, 0x00, 0x08, 0x00, 0x00, 0x00,
    0x10, 0x00, 0x00, 0x00, 0x01, 0x00, 0x00, 0x00, 0x80, 0xff, 0xff, 0xff,
    0xff, 0xff, 0xff, 0xff, 0x01, 0x00, 0x00, 0x00, 0xab, 0x04, 0x80, 0x3b,
    0x19, 0x00, 0x00, 0x00, 0x73, 0x65, 0x72, 0x76, 0x69, 0x6e, 0x67, 0x5f,
    0x64, 0x65, 0x66, 0x61, 0x75, 0x6c, 0x74, 0x5f, 0x69, 0x6e, 0x70, 0x75,
    0x74, 0x5f, 0x31, 0x3a, 0x30, 0x00, 0x00, 0x00, 0x02, 0x00, 0x00, 0x00,
    0x01, 0x00, 0x00, 0x00, 0x05, 0x00, 0x00, 0x00, 0x01, 0x00, 0x00, 0x00,
    0x10, 0x00, 0x00, 0x00, 0x0c, 0x00, 0x10, 0x00, 0x0f, 0x00, 0x00, 0x00,
    0x08, 0x00, 0x04, 0x00, 0x0c, 0x00, 0x00, 0x00, 0x09, 0x00, 0x00, 0x00,
    0x04, 0x00, 0x00, 0x00, 0x00, 0x00, 0x00, 0x09};
unsigned int model_tflite_len = 3464;
