unsigned char quantized_model_tflite[] = {
  0x20, 0x00, 0x00, 0x00, 0x54, 0x46, 0x4c, 0x33, 0x00, 0x00, 0x00, 0x00,
  0x14, 0x00, 0x20, 0x00, 0x1c, 0x00, 0x18, 0x00, 0x14, 0x00, 0x10, 0x00,
  0x0c, 0x00, 0x00, 0x00, 0x08, 0x00, 0x04, 0x00, 0x14, 0x00, 0x00, 0x00,
  0x1c, 0x00, 0x00, 0x00, 0x98, 0x00, 0x00, 0x00, 0xf0, 0x00, 0x00, 0x00,
  0x6c, 0x13, 0x00, 0x00, 0x7c, 0x13, 0x00, 0x00, 0xe8, 0x18, 0x00, 0x00,
  0x03, 0x00, 0x00, 0x00, 0x01, 0x00, 0x00, 0x00, 0x10, 0x00, 0x00, 0x00,
  0x00, 0x00, 0x0a, 0x00, 0x10, 0x00, 0x0c, 0x00, 0x08, 0x00, 0x04, 0x00,
  0x0a, 0x00, 0x00, 0x00, 0x0c, 0x00, 0x00, 0x00, 0x1c, 0x00, 0x00, 0x00,
  0x3c, 0x00, 0x00, 0x00, 0x0f, 0x00, 0x00, 0x00, 0x73, 0x65, 0x72, 0x76,
  0x69, 0x6e, 0x67, 0x5f, 0x64, 0x65, 0x66, 0x61, 0x75, 0x6c, 0x74, 0x00,
  0x01, 0x00, 0x00, 0x00, 0x04, 0x00, 0x00, 0x00, 0x90, 0xff, 0xff, 0xff,
  0x0a, 0x00, 0x00, 0x00, 0x04, 0x00, 0x00, 0x00, 0x08, 0x00, 0x00, 0x00,
  0x6f, 0x75, 0x74, 0x70, 0x75, 0x74, 0x5f, 0x30, 0x00, 0x00, 0x00, 0x00,
  0x01, 0x00, 0x00, 0x00, 0x04, 0x00, 0x00, 0x00, 0x36, 0xed, 0xff, 0xff,
  0x04, 0x00, 0x00, 0x00, 0x0c, 0x00, 0x00, 0x00, 0x6b, 0x65, 0x72, 0x61,
  0x73, 0x5f, 0x74, 0x65, 0x6e, 0x73, 0x6f, 0x72, 0x00, 0x00, 0x00, 0x00,
  0x02, 0x00, 0x00, 0x00, 0x34, 0x00, 0x00, 0x00, 0x04, 0x00, 0x00, 0x00,
  0xdc, 0xff, 0xff, 0xff, 0x0d, 0x00, 0x00, 0x00, 0x04, 0x00, 0x00, 0x00,
  0x13, 0x00, 0x00, 0x00, 0x43, 0x4f, 0x4e, 0x56, 0x45, 0x52, 0x53, 0x49,
  0x4f, 0x4e, 0x5f, 0x4d, 0x45, 0x54, 0x41, 0x44, 0x41, 0x54, 0x41, 0x00,
  0x08, 0x00, 0x0c, 0x00, 0x08, 0x00, 0x04, 0x00, 0x08, 0x00, 0x00, 0x00,
  0x0c, 0x00, 0x00, 0x00, 0x04, 0x00, 0x00, 0x00, 0x13, 0x00, 0x00, 0x00,
  0x6d, 0x69, 0x6e, 0x5f, 0x72, 0x75, 0x6e, 0x74, 0x69, 0x6d, 0x65, 0x5f,
  0x76, 0x65, 0x72, 0x73, 0x69, 0x6f, 0x6e, 0x00, 0x0e, 0x00, 0x00, 0x00,
  0x78, 0x12, 0x00, 0x00, 0x70, 0x12, 0x00, 0x00, 0x4c, 0x12, 0x00, 0x00,
  0x54, 0x10, 0x00, 0x00, 0xe4, 0x0f, 0x00, 0x00, 0xd4, 0x03, 0x00, 0x00,
  0x44, 0x03, 0x00, 0x00, 0xb4, 0x00, 0x00, 0x00, 0xac, 0x00, 0x00, 0x00,
  0xa4, 0x00, 0x00, 0x00, 0x9c, 0x00, 0x00, 0x00, 0x94, 0x00, 0x00, 0x00,
  0x74, 0x00, 0x00, 0x00, 0x04, 0x00, 0x00, 0x00, 0xea, 0xed, 0xff, 0xff,
  0x04, 0x00, 0x00, 0x00, 0x60, 0x00, 0x00, 0x00, 0x0c, 0x00, 0x00, 0x00,
  0x08, 0x00, 0x0e, 0x00, 0x08, 0x00, 0x04, 0x00, 0x08, 0x00, 0x00, 0x00,
  0x10, 0x00, 0x00, 0x00, 0x28, 0x00, 0x00, 0x00, 0x00, 0x00, 0x06, 0x00,
  0x08, 0x00, 0x04, 0x00, 0x06, 0x00, 0x00, 0x00, 0x04, 0x00, 0x00, 0x00,
  0x01, 0x00, 0x00, 0x00, 0xeb, 0x03, 0x00, 0x00, 0x0c, 0x00, 0x18, 0x00,
  0x14, 0x00, 0x10, 0x00, 0x0c, 0x00, 0x04, 0x00, 0x0c, 0x00, 0x00, 0x00,
  0xd9, 0x5a, 0x47, 0xcb, 0x32, 0x84, 0x5c, 0x21, 0x02, 0x00, 0x00, 0x00,
  0x02, 0x00, 0x00, 0x00, 0x04, 0x00, 0x00, 0x00, 0x06, 0x00, 0x00, 0x00,
  0x32, 0x2e, 0x32, 0x30, 0x2e, 0x30, 0x00, 0x00, 0x56, 0xee, 0xff, 0xff,
  0x04, 0x00, 0x00, 0x00, 0x10, 0x00, 0x00, 0x00, 0x31, 0x2e, 0x31, 0x34,
  0x2e, 0x30, 0x00, 0x00, 0x00, 0x00, 0x00, 0x00, 0x00, 0x00, 0x00, 0x00,
  0x84, 0xe9, 0xff, 0xff, 0x88, 0xe9, 0xff, 0xff, 0x8c, 0xe9, 0xff, 0xff,
  0x90, 0xe9, 0xff, 0xff, 0x82, 0xee, 0xff, 0xff, 0x04, 0x00, 0x00, 0x00,
  0x80, 0x02, 0x00, 0x00, 0x00, 0x00, 0xc0, 0x7f, 0x00, 0x00, 0xc0, 0x7f,
  0x00, 0x00, 0xc0, 0x7f, 0x00, 0x00, 0xc0, 0x7f, 0x00, 0x00, 0xc0, 0x7f,
  0x00, 0x00, 0xc0, 0x7f, 0x00, 0x00, 0xc0, 0x7f, 0x00, 0x00, 0xc0, 0x7f,
  0x00, 0x00, 0xc0, 0x7f, 0x00, 0x00, 0xc0, 0x7f, 0x00, 0x00, 0xc0, 0x7f,
  0x00, 0x00, 0xc0, 0x7f, 0x00, 0x00, 0xc0, 0x7f, 0x00, 0x00, 0xc0, 0x7f,
  0x00, 0x00, 0xc0, 0x7f, 0x00, 0x00, 0xc0, 0x7f, 0x00, 0x00, 0xc0, 0x7f,
  0x00, 0x00, 0xc0, 0x7f, 0x00, 0x00, 0xc0, 0x7f, 0x00, 0x00, 0xc0, 0x7f,
  0x00, 0x00, 0xc0, 0x7f, 0x00, 0x00, 0xc0, 0x7f, 0x00, 0x00, 0xc0, 0x7f,
  0x00, 0x00, 0xc0, 0x7f, 0x00, 0x00, 0xc0, 0x7f, 0x00, 0x00, 0xc0, 0x7f,
  0x00, 0x00, 0xc0, 0x7f, 0x00, 0x00, 0xc0, 0x7f, 0x00, 0x00, 0xc0, 0x7f,
  0x00, 0x00, 0xc0, 0x7f, 0x00, 0x00, 0xc0, 0x7f, 0x00, 0x00, 0xc0, 0x7f,
  0x00, 0x00, 0xc0, 0x7f, 0x00, 0x00, 0xc0, 0x7f, 0x00, 0x00, 0xc0, 0x7f,
  0x00, 0x00, 0xc0, 0x7f, 0x00, 0x00, 0xc0, 0x7f, 0x00, 0x00, 0xc0, 0x7f,
  0x00, 0x00, 0xc0, 0x7f, 0x00, 0x00, 0xc0, 0x7f, 0x00, 0x00, 0xc0, 0x7f,
  0x00, 0x00, 0xc0, 0x7f, 0x00, 0x00, 0xc0, 0x7f, 0x00, 0x00, 0xc0, 0x7f,
  0x00, 0x00, 0xc0, 0x7f, 0x00, 0x00, 0xc0, 0x7f, 0x00, 0x00, 0xc0, 0x7f,
  0x00, 0x00, 0xc0, 0x7f, 0x00, 0x00, 0xc0, 0x7f, 0x00, 0x00, 0xc0, 0x7f,
  0x00, 0x00, 0xc0, 0x7f, 0x00, 0x00, 0xc0, 0x7f, 0x00, 0x00, 0xc0, 0x7f,
  0x00, 0x00, 0xc0, 0x7f, 0x00, 0x00, 0xc0, 0x7f, 0x00, 0x00, 0xc0, 0x7f,
  0x00, 0x00, 0xc0, 0x7f, 0x00, 0x00, 0xc0, 0x7f, 0x00, 0x00, 0xc0, 0x7f,
  0x00, 0x00, 0xc0, 0x7f, 0x00, 0x00, 0xc0, 0x7f, 0x00, 0x00, 0xc0, 0x7f,
  0x00, 0x00, 0xc0, 0x7f, 0x00, 0x00, 0xc0, 0x7f, 0x00, 0x00, 0xc0, 0x7f,
  0x00, 0x00, 0xc0, 0x7f, 0x00, 0x00, 0xc0, 0x7f, 0x00, 0x00, 0xc0, 0x7f,
  0x00, 0x00, 0xc0, 0x7f, 0x00, 0x00, 0xc0, 0x7f, 0x00, 0x00, 0xc0, 0x7f,
  0x00, 0x00, 0xc0, 0x7f, 0x00, 0x00, 0xc0, 0x7f, 0x00, 0x00, 0xc0, 0x7f,
  0x00, 0x00, 0xc0, 0x7f, 0x00, 0x00, 0xc0, 0x7f, 0x00, 0x00, 0xc0, 0x7f,
  0x00, 0x00, 0xc0, 0x7f, 0x00, 0x00, 0xc0, 0x7f, 0x00, 0x00, 0xc0, 0x7f,
  0x00, 0x00, 0xc0, 0x7f, 0x00, 0x00, 0xc0, 0x7f, 0x00, 0x00, 0xc0, 0x7f,
  0x00, 0x00, 0xc0, 0x7f, 0x00, 0x00, 0xc0, 0x7f, 0x00, 0x00, 0xc0, 0x7f,
  0x00, 0x00, 0xc0, 0x7f, 0x00, 0x00, 0xc0, 0x7f, 0x00, 0x00, 0xc0, 0x7f,
  0x00, 0x00, 0xc0, 0x7f, 0x00, 0x00, 0xc0, 0x7f, 0x00, 0x00, 0xc0, 0x7f,
  0x00, 0x00, 0xc0, 0x7f, 0x00, 0x00, 0xc0, 0x7f, 0x00, 0x00, 0xc0, 0x7f,
  0x00, 0x00, 0xc0, 0x7f, 0x00, 0x00, 0xc0, 0x7f, 0x00, 0x00, 0xc0, 0x7f,
  0x00, 0x00, 0xc0, 0x7f, 0x00, 0x00, 0xc0, 0x7f, 0x00, 0x00, 0xc0, 0x7f,
  0x00, 0x00, 0xc0, 0x7f, 0x00, 0x00, 0xc0, 0x7f, 0x00, 0x00, 0xc0, 0x7f,
  0x00, 0x00, 0xc0, 0x7f, 0x00, 0x00, 0xc0, 0x7f, 0x00, 0x00, 0xc0, 0x7f,
  0x00, 0x00, 0xc0, 0x7f, 0x00, 0x00, 0xc0, 0x7f, 0x00, 0x00, 0xc0, 0x7f,
  0x00, 0x00, 0xc0, 0x7f, 0x00, 0x00, 0xc0, 0x7f, 0x00, 0x00, 0xc0, 0x7f,
  0x00, 0x00, 0xc0, 0x7f, 0x00, 0x00, 0xc0, 0x7f, 0x00, 0x00, 0xc0, 0x7f,
  0x00, 0x00, 0xc0, 0x7f, 0x00, 0x00, 0xc0, 0x7f, 0x00, 0x00, 0xc0, 0x7f,
  0x00, 0x00, 0xc0, 0x7f, 0x00, 0x00, 0xc0, 0x7f, 0x00, 0x00, 0xc0, 0x7f,
  0x00, 0x00, 0xc0, 0x7f, 0x00, 0x00, 0xc0, 0x7f, 0x00, 0x00, 0xc0, 0x7f,
  0x00, 0x00, 0xc0, 0x7f, 0x00, 0x00, 0xc0, 0x7f, 0x00, 0x00, 0xc0, 0x7f,
  0x00, 0x00, 0xc0, 0x7f, 0x00, 0x00, 0xc0, 0x7f, 0x00, 0x00, 0xc0, 0x7f,
  0x00, 0x00, 0xc0, 0x7f, 0x00, 0x00, 0xc0, 0x7f, 0x00, 0x00, 0xc0, 0x7f,
  0x00, 0x00, 0xc0, 0x7f, 0x00, 0x00, 0xc0, 0x7f, 0x00, 0x00, 0xc0, 0x7f,
  0x00, 0x00, 0xc0, 0x7f, 0x00, 0x00, 0xc0, 0x7f, 0x00, 0x00, 0xc0, 0x7f,
  0x00, 0x00, 0xc0, 0x7f, 0x00, 0x00, 0xc0, 0x7f, 0x00, 0x00, 0xc0, 0x7f,
  0x00, 0x00, 0xc0, 0x7f, 0x00, 0x00, 0xc0, 0x7f, 0x00, 0x00, 0xc0, 0x7f,
  0x00, 0x00, 0xc0, 0x7f, 0x00, 0x00, 0xc0, 0x7f, 0x00, 0x00, 0xc0, 0x7f,
  0x00, 0x00, 0xc0, 0x7f, 0x00, 0x00, 0xc0, 0x7f, 0x00, 0x00, 0xc0, 0x7f,
  0x00, 0x00, 0xc0, 0x7f, 0x00, 0x00, 0xc0, 0x7f, 0x00, 0x00, 0xc0, 0x7f,
  0x00, 0x00, 0xc0, 0x7f, 0x00, 0x00, 0xc0, 0x7f, 0x00, 0x00, 0xc0, 0x7f,
  0x00, 0x00, 0xc0, 0x7f, 0x00, 0x00, 0xc0, 0x7f, 0x0e, 0xf1, 0xff, 0xff,
  0x04, 0x00, 0x00, 0x00, 0x80, 0x00, 0x00, 0x00, 0x00, 0x00, 0xc0, 0x7f,
  0x00, 0x00, 0xc0, 0x7f, 0x00, 0x00, 0xc0, 0x7f, 0x00, 0x00, 0xc0, 0x7f,
  0x00, 0x00, 0xc0, 0x7f, 0x00, 0x00, 0xc0, 0x7f, 0x00, 0x00, 0xc0, 0x7f,
  0x00, 0x00, 0xc0, 0x7f, 0x00, 0x00, 0xc0, 0x7f, 0x00, 0x00, 0xc0, 0x7f,
  0x00, 0x00, 0xc0, 0x7f, 0x00, 0x00, 0xc0, 0x7f, 0x00, 0x00, 0xc0, 0x7f,
  0x00, 0x00, 0xc0, 0x7f, 0x00, 0x00, 0xc0, 0x7f, 0x00, 0x00, 0xc0, 0x7f,
  0x00, 0x00, 0xc0, 0x7f, 0x00, 0x00, 0xc0, 0x7f, 0x00, 0x00, 0xc0, 0x7f,
  0x00, 0x00, 0xc0, 0x7f, 0x00, 0x00, 0xc0, 0x7f, 0x00, 0x00, 0xc0, 0x7f,
  0x00, 0x00, 0xc0, 0x7f, 0x00, 0x00, 0xc0, 0x7f, 0x00, 0x00, 0xc0, 0x7f,
  0x00, 0x00, 0xc0, 0x7f, 0x00, 0x00, 0xc0, 0x7f, 0x00, 0x00, 0xc0, 0x7f,
  0x00, 0x00, 0xc0, 0x7f, 0x00, 0x00, 0xc0, 0x7f, 0x00, 0x00, 0xc0, 0x7f,
  0x00, 0x00, 0xc0, 0x7f, 0x9a, 0xf1, 0xff, 0xff, 0x04, 0x00, 0x00, 0x00,
  0x00, 0x0c, 0x00, 0x00, 0x00, 0x00, 0xc0, 0x7f, 0x00, 0x00, 0xc0, 0x7f,
  0x00, 0x00, 0xc0, 0x7f, 0x00, 0x00, 0xc0, 0x7f, 0x00, 0x00, 0xc0, 0x7f,
  0x00, 0x00, 0xc0, 0x7f, 0x00, 0x00, 0xc0, 0x7f, 0x00, 0x00, 0xc0, 0x7f,
  0x00, 0x00, 0xc0, 0x7f, 0x00, 0x00, 0xc0, 0x7f, 0x00, 0x00, 0xc0, 0x7f,
  0x00, 0x00, 0xc0, 0x7f, 0x00, 0x00, 0xc0, 0x7f, 0x00, 0x00, 0xc0, 0x7f,
  0x00, 0x00, 0xc0, 0x7f, 0x00, 0x00, 0xc0, 0x7f, 0x00, 0x00, 0xc0, 0x7f,
  0x00, 0x00, 0xc0, 0x7f, 0x00, 0x00, 0xc0, 0x7f, 0x00, 0x00, 0xc0, 0x7f,
  0x00, 0x00, 0xc0, 0x7f, 0x00, 0x00, 0xc0, 0x7f, 0x00, 0x00, 0xc0, 0x7f,
  0x00, 0x00, 0xc0, 0x7f, 0x00, 0x00, 0xc0, 0x7f, 0x00, 0x00, 0xc0, 0x7f,
  0x00, 0x00, 0xc0, 0x7f, 0x00, 0x00, 0xc0, 0x7f, 0x00, 0x00, 0xc0, 0x7f,
  0x00, 0x00, 0xc0, 0x7f, 0x00, 0x00, 0xc0, 0x7f, 0x00, 0x00, 0xc0, 0x7f,
  0x00, 0x00, 0xc0, 0x7f, 0x00, 0x00, 0xc0, 0x7f, 0x00, 0x00, 0xc0, 0x7f,
  0x00, 0x00, 0xc0, 0x7f, 0x00, 0x00, 0xc0, 0x7f, 0x00, 0x00, 0xc0, 0x7f,
  0x00, 0x00, 0xc0, 0x7f, 0x00, 0x00, 0xc0, 0x7f, 0x00, 0x00, 0xc0, 0x7f,
  0x00, 0x00, 0xc0, 0x7f, 0x00, 0x00, 0xc0, 0x7f, 0x00, 0x00, 0xc0, 0x7f,
  0x00, 0x00, 0xc0, 0x7f, 0x00, 0x00, 0xc0, 0x7f, 0x00, 0x00, 0xc0, 0x7f,
  0x00, 0x00, 0xc0, 0x7f, 0x00, 0x00, 0xc0, 0x7f, 0x00, 0x00, 0xc0, 0x7f,
  0x00, 0x00, 0xc0, 0x7f, 0x00, 0x00, 0xc0, 0x7f, 0x00, 0x00, 0xc0, 0x7f,
  0x00, 0x00, 0xc0, 0x7f, 0x00, 0x00, 0xc0, 0x7f, 0x00, 0x00, 0xc0, 0x7f,
  0x00, 0x00, 0xc0, 0x7f, 0x00, 0x00, 0xc0, 0x7f, 0x00, 0x00, 0xc0, 0x7f,
  0x00, 0x00, 0xc0, 0x7f, 0x00, 0x00, 0xc0, 0x7f, 0x00, 0x00, 0xc0, 0x7f,
  0x00, 0x00, 0xc0, 0x7f, 0x00, 0x00, 0xc0, 0x7f, 0x00, 0x00, 0xc0, 0x7f,
  0x00, 0x00, 0xc0, 0x7f, 0x00, 0x00, 0xc0, 0x7f, 0x00, 0x00, 0xc0, 0x7f,
  0x00, 0x00, 0xc0, 0x7f, 0x00, 0x00, 0xc0, 0x7f, 0x00, 0x00, 0xc0, 0x7f,
  0x00, 0x00, 0xc0, 0x7f, 0x00, 0x00, 0xc0, 0x7f, 0x00, 0x00, 0xc0, 0x7f,
  0x00, 0x00, 0xc0, 0x7f, 0x00, 0x00, 0xc0, 0x7f, 0x00, 0x00, 0xc0, 0x7f,
  0x00, 0x00, 0xc0, 0x7f, 0x00, 0x00, 0xc0, 0x7f, 0x00, 0x00, 0xc0, 0x7f,
  0x00, 0x00, 0xc0, 0x7f, 0x00, 0x00, 0xc0, 0x7f, 0x00, 0x00, 0xc0, 0x7f,
  0x00, 0x00, 0xc0, 0x7f, 0x00, 0x00, 0xc0, 0x7f, 0x00, 0x00, 0xc0, 0x7f,
  0x00, 0x00, 0xc0, 0x7f, 0x00, 0x00, 0xc0, 0x7f, 0x00, 0x00, 0xc0, 0x7f,
  0x00, 0x00, 0xc0, 0x7f, 0x00, 0x00, 0xc0, 0x7f, 0x00, 0x00, 0xc0, 0x7f,
  0x00, 0x00, 0xc0, 0x7f, 0x00, 0x00, 0xc0, 0x7f, 0x00, 0x00, 0xc0, 0x7f,
  0x00, 0x00, 0xc0, 0x7f, 0x00, 0x00, 0xc0, 0x7f, 0x00, 0x00, 0xc0, 0x7f,
  0x00, 0x00, 0xc0, 0x7f, 0x00, 0x00, 0xc0, 0x7f, 0x00, 0x00, 0xc0, 0x7f,
  0x00, 0x00, 0xc0, 0x7f, 0x00, 0x00, 0xc0, 0x7f, 0x00, 0x00, 0xc0, 0x7f,
  0x00, 0x00, 0xc0, 0x7f, 0x00, 0x00, 0xc0, 0x7f, 0x00, 0x00, 0xc0, 0x7f,
  0x00, 0x00, 0xc0, 0x7f, 0x00, 0x00, 0xc0, 0x7f, 0x00, 0x00, 0xc0, 0x7f,
  0x00, 0x00, 0xc0, 0x7f, 0x00, 0x00, 0xc0, 0x7f, 0x00, 0x00, 0xc0, 0x7f,
  0x00, 0x00, 0xc0, 0x7f, 0x00, 0x00, 0xc0, 0x7f, 0x00, 0x00, 0xc0, 0x7f,
  0x00, 0x00, 0xc0, 0x7f, 0x00, 0x00, 0xc0, 0x7f, 0x00, 0x00, 0xc0, 0x7f,
  0x00, 0x00, 0xc0, 0x7f, 0x00, 0x00, 0xc0, 0x7f, 0x00, 0x00, 0xc0, 0x7f,
  0x00, 0x00, 0xc0, 0x7f, 0x00, 0x00, 0xc0, 0x7f, 0x00, 0x00, 0xc0, 0x7f,
  0x00, 0x00, 0xc0, 0x7f, 0x00, 0x00, 0xc0, 0x7f, 0x00, 0x00, 0xc0, 0x7f,
  0x00, 0x00, 0xc0, 0x7f, 0x00, 0x00, 0xc0, 0x7f, 0x00, 0x00, 0xc0, 0x7f,
  0x00, 0x00, 0xc0, 0x7f, 0x00, 0x00, 0xc0, 0x7f, 0x00, 0x00, 0xc0, 0x7f,
  0x00, 0x00, 0xc0, 0x7f, 0x00, 0x00, 0xc0, 0x7f, 0x00, 0x00, 0xc0, 0x7f,
  0x00, 0x00, 0xc0, 0x7f, 0x00, 0x00, 0xc0, 0x7f, 0x00, 0x00, 0xc0, 0x7f,
  0x00, 0x00, 0xc0, 0x7f, 0x00, 0x00, 0xc0, 0x7f, 0x00, 0x00, 0xc0, 0x7f,
  0x00, 0x00, 0xc0, 0x7f, 0x00, 0x00, 0xc0, 0x7f, 0x00, 0x00, 0xc0, 0x7f,
  0x00, 0x00, 0xc0, 0x7f, 0x00, 0x00, 0xc0, 0x7f, 0x00, 0x00, 0xc0, 0x7f,
  0x00, 0x00, 0xc0, 0x7f, 0x00, 0x00, 0xc0, 0x7f, 0x00, 0x00, 0xc0, 0x7f,
  0x00, 0x00, 0xc0, 0x7f, 0x00, 0x00, 0xc0, 0x7f, 0x00, 0x00, 0xc0, 0x7f,
  0x00, 0x00, 0xc0, 0x7f, 0x00, 0x00, 0xc0, 0x7f, 0x00, 0x00, 0xc0, 0x7f,
  0x00, 0x00, 0xc0, 0x7f, 0x00, 0x00, 0xc0, 0x7f, 0x00, 0x00, 0xc0, 0x7f,
  0x00, 0x00, 0xc0, 0x7f, 0x00, 0x00, 0xc0, 0x7f, 0x00, 0x00, 0xc0, 0x7f,
  0x00, 0x00, 0xc0, 0x7f, 0x00, 0x00, 0xc0, 0x7f, 0x00, 0x00, 0xc0, 0x7f,
  0x00, 0x00, 0xc0, 0x7f, 0x00, 0x00, 0xc0, 0x7f, 0x00, 0x00, 0xc0, 0x7f,
  0x00, 0x00, 0xc0, 0x7f, 0x00, 0x00, 0xc0, 0x7f, 0x00, 0x00, 0xc0, 0x7f,
  0x00, 0x00, 0xc0, 0x7f, 0x00, 0x00, 0xc0, 0x7f, 0x00, 0x00, 0xc0, 0x7f,
  0x00, 0x00, 0xc0, 0x7f, 0x00, 0x00, 0xc0, 0x7f, 0x00, 0x00, 0xc0, 0x7f,
  0x00, 0x00, 0xc0, 0x7f, 0x00, 0x00, 0xc0, 0x7f, 0x00, 0x00, 0xc0, 0x7f,
  0x00, 0x00, 0xc0, 0x7f, 0x00, 0x00, 0xc0, 0x7f, 0x00, 0x00, 0xc0, 0x7f,
  0x00, 0x00, 0xc0, 0x7f, 0x00, 0x00, 0xc0, 0x7f, 0x00, 0x00, 0xc0, 0x7f,
  0x00, 0x00, 0xc0, 0x7f, 0x00, 0x00, 0xc0, 0x7f, 0x00, 0x00, 0xc0, 0x7f,
  0x00, 0x00, 0xc0, 0x7f, 0x00, 0x00, 0xc0, 0x7f, 0x00, 0x00, 0xc0, 0x7f,
  0x00, 0x00, 0xc0, 0x7f, 0x00, 0x00, 0xc0, 0x7f, 0x00, 0x00, 0xc0, 0x7f,
  0x00, 0x00, 0xc0, 0x7f, 0x00, 0x00, 0xc0, 0x7f, 0x00, 0x00, 0xc0, 0x7f,
  0x00, 0x00, 0xc0, 0x7f, 0x00, 0x00, 0xc0, 0x7f, 0x00, 0x00, 0xc0, 0x7f,
  0x00, 0x00, 0xc0, 0x7f, 0x00, 0x00, 0xc0, 0x7f, 0x00, 0x00, 0xc0, 0x7f,
  0x00, 0x00, 0xc0, 0x7f, 0x00, 0x00, 0xc0, 0x7f, 0x00, 0x00, 0xc0, 0x7f,
  0x00, 0x00, 0xc0, 0x7f, 0x00, 0x00, 0xc0, 0x7f, 0x00, 0x00, 0xc0, 0x7f,
  0x00, 0x00, 0xc0, 0x7f, 0x00, 0x00, 0xc0, 0x7f, 0x00, 0x00, 0xc0, 0x7f,
  0x00, 0x00, 0xc0, 0x7f, 0x00, 0x00, 0xc0, 0x7f, 0x00, 0x00, 0xc0, 0x7f,
  0x00, 0x00, 0xc0, 0x7f, 0x00, 0x00, 0xc0, 0x7f, 0x00, 0x00, 0xc0, 0x7f,
  0x00, 0x00, 0xc0, 0x7f, 0x00, 0x00, 0xc0, 0x7f, 0x00, 0x00, 0xc0, 0x7f,
  0x00, 0x00, 0xc0, 0x7f, 0x00, 0x00, 0xc0, 0x7f, 0x00, 0x00, 0xc0, 0x7f,
  0x00, 0x00, 0xc0, 0x7f, 0x00, 0x00, 0xc0, 0x7f, 0x00, 0x00, 0xc0, 0x7f,
  0x00, 0x00, 0xc0, 0x7f, 0x00, 0x00, 0xc0, 0x7f, 0x00, 0x00, 0xc0, 0x7f,
  0x00, 0x00, 0xc0, 0x7f, 0x00, 0x00, 0xc0, 0x7f, 0x00, 0x00, 0xc0, 0x7f,
  0x00, 0x00, 0xc0, 0x7f, 0x00, 0x00, 0xc0, 0x7f, 0x00, 0x00, 0xc0, 0x7f,
  0x00, 0x00, 0xc0, 0x7f, 0x00, 0x00, 0xc0, 0x7f, 0x00, 0x00, 0xc0, 0x7f,
  0x00, 0x00, 0xc0, 0x7f, 0x00, 0x00, 0xc0, 0x7f, 0x00, 0x00, 0xc0, 0x7f,
  0x00, 0x00, 0xc0, 0x7f, 0x00, 0x00, 0xc0, 0x7f, 0x00, 0x00, 0xc0, 0x7f,
  0x00, 0x00, 0xc0, 0x7f, 0x00, 0x00, 0xc0, 0x7f, 0x00, 0x00, 0xc0, 0x7f,
  0x00, 0x00, 0xc0, 0x7f, 0x00, 0x00, 0xc0, 0x7f, 0x00, 0x00, 0xc0, 0x7f,
  0x00, 0x00, 0xc0, 0x7f, 0x00, 0x00, 0xc0, 0x7f, 0x00, 0x00, 0xc0, 0x7f,
  0x00, 0x00, 0xc0, 0x7f, 0x00, 0x00, 0xc0, 0x7f, 0x00, 0x00, 0xc0, 0x7f,
  0x00, 0x00, 0xc0, 0x7f, 0x00, 0x00, 0xc0, 0x7f, 0x00, 0x00, 0xc0, 0x7f,
  0x00, 0x00, 0xc0, 0x7f, 0x00, 0x00, 0xc0, 0x7f, 0x00, 0x00, 0xc0, 0x7f,
  0x00, 0x00, 0xc0, 0x7f, 0x00, 0x00, 0xc0, 0x7f, 0x00, 0x00, 0xc0, 0x7f,
  0x00, 0x00, 0xc0, 0x7f, 0x00, 0x00, 0xc0, 0x7f, 0x00, 0x00, 0xc0, 0x7f,
  0x00, 0x00, 0xc0, 0x7f, 0x00, 0x00, 0xc0, 0x7f, 0x00, 0x00, 0xc0, 0x7f,
  0x00, 0x00, 0xc0, 0x7f, 0x00, 0x00, 0xc0, 0x7f, 0x00, 0x00, 0xc0, 0x7f,
  0x00, 0x00, 0xc0, 0x7f, 0x00, 0x00, 0xc0, 0x7f, 0x00, 0x00, 0xc0, 0x7f,
  0x00, 0x00, 0xc0, 0x7f, 0x00, 0x00, 0xc0, 0x7f, 0x00, 0x00, 0xc0, 0x7f,
  0x00, 0x00, 0xc0, 0x7f, 0x00, 0x00, 0xc0, 0x7f, 0x00, 0x00, 0xc0, 0x7f,
  0x00, 0x00, 0xc0, 0x7f, 0x00, 0x00, 0xc0, 0x7f, 0x00, 0x00, 0xc0, 0x7f,
  0x00, 0x00, 0xc0, 0x7f, 0x00, 0x00, 0xc0, 0x7f, 0x00, 0x00, 0xc0, 0x7f,
  0x00, 0x00, 0xc0, 0x7f, 0x00, 0x00, 0xc0, 0x7f, 0x00, 0x00, 0xc0, 0x7f,
  0x00, 0x00, 0xc0, 0x7f, 0x00, 0x00, 0xc0, 0x7f, 0x00, 0x00, 0xc0, 0x7f,
  0x00, 0x00, 0xc0, 0x7f, 0x00, 0x00, 0xc0, 0x7f, 0x00, 0x00, 0xc0, 0x7f,
  0x00, 0x00, 0xc0, 0x7f, 0x00, 0x00, 0xc0, 0x7f, 0x00, 0x00, 0xc0, 0x7f,
  0x00, 0x00, 0xc0, 0x7f, 0x00, 0x00, 0xc0, 0x7f, 0x00, 0x00, 0xc0, 0x7f,
  0x00, 0x00, 0xc0, 0x7f, 0x00, 0x00, 0xc0, 0x7f, 0x00, 0x00, 0xc0, 0x7f,
  0x00, 0x00, 0xc0, 0x7f, 0x00, 0x00, 0xc0, 0x7f, 0x00, 0x00, 0xc0, 0x7f,
  0x00, 0x00, 0xc0, 0x7f, 0x00, 0x00, 0xc0, 0x7f, 0x00, 0x00, 0xc0, 0x7f,
  0x00, 0x00, 0xc0, 0x7f, 0x00, 0x00, 0xc0, 0x7f, 0x00, 0x00, 0xc0, 0x7f,
  0x00, 0x00, 0xc0, 0x7f, 0x00, 0x00, 0xc0, 0x7f, 0x00, 0x00, 0xc0, 0x7f,
  0x00, 0x00, 0xc0, 0x7f, 0x00, 0x00, 0xc0, 0x7f, 0x00, 0x00, 0xc0, 0x7f,
  0x00, 0x00, 0xc0, 0x7f, 0x00, 0x00, 0xc0, 0x7f, 0x00, 0x00, 0xc0, 0x7f,
  0x00, 0x00, 0xc0, 0x7f, 0x00, 0x00, 0xc0, 0x7f, 0x00, 0x00, 0xc0, 0x7f,
  0x00, 0x00, 0xc0, 0x7f, 0x00, 0x00, 0xc0, 0x7f, 0x00, 0x00, 0xc0, 0x7f,
  0x00, 0x00, 0xc0, 0x7f, 0x00, 0x00, 0xc0, 0x7f, 0x00, 0x00, 0xc0, 0x7f,
  0x00, 0x00, 0xc0, 0x7f, 0x00, 0x00, 0xc0, 0x7f, 0x00, 0x00, 0xc0, 0x7f,
  0x00, 0x00, 0xc0, 0x7f, 0x00, 0x00, 0xc0, 0x7f, 0x00, 0x00, 0xc0, 0x7f,
  0x00, 0x00, 0xc0, 0x7f, 0x00, 0x00, 0xc0, 0x7f, 0x00, 0x00, 0xc0, 0x7f,
  0x00, 0x00, 0xc0, 0x7f, 0x00, 0x00, 0xc0, 0x7f, 0x00, 0x00, 0xc0, 0x7f,
  0x00, 0x00, 0xc0, 0x7f, 0x00, 0x00, 0xc0, 0x7f, 0x00, 0x00, 0xc0, 0x7f,
  0x00, 0x00, 0xc0, 0x7f, 0x00, 0x00, 0xc0, 0x7f, 0x00, 0x00, 0xc0, 0x7f,
  0x00, 0x00, 0xc0, 0x7f, 0x00, 0x00, 0xc0, 0x7f, 0x00, 0x00, 0xc0, 0x7f,
  0x00, 0x00, 0xc0, 0x7f, 0x00, 0x00, 0xc0, 0x7f, 0x00, 0x00, 0xc0, 0x7f,
  0x00, 0x00, 0xc0, 0x7f, 0x00, 0x00, 0xc0, 0x7f, 0x00, 0x00, 0xc0, 0x7f,
  0x00, 0x00, 0xc0, 0x7f, 0x00, 0x00, 0xc0, 0x7f, 0x00, 0x00, 0xc0, 0x7f,
  0x00, 0x00, 0xc0, 0x7f, 0x00, 0x00, 0xc0, 0x7f, 0x00, 0x00, 0xc0, 0x7f,
  0x00, 0x00, 0xc0, 0x7f, 0x00, 0x00, 0xc0, 0x7f, 0x00, 0x00, 0xc0, 0x7f,
  0x00, 0x00, 0xc0, 0x7f, 0x00, 0x00, 0xc0, 0x7f, 0x00, 0x00, 0xc0, 0x7f,
  0x00, 0x00, 0xc0, 0x7f, 0x00, 0x00, 0xc0, 0x7f, 0x00, 0x00, 0xc0, 0x7f,
  0x00, 0x00, 0xc0, 0x7f, 0x00, 0x00, 0xc0, 0x7f, 0x00, 0x00, 0xc0, 0x7f,
  0x00, 0x00, 0xc0, 0x7f, 0x00, 0x00, 0xc0, 0x7f, 0x00, 0x00, 0xc0, 0x7f,
  0x00, 0x00, 0xc0, 0x7f, 0x00, 0x00, 0xc0, 0x7f, 0x00, 0x00, 0xc0, 0x7f,
  0x00, 0x00, 0xc0, 0x7f, 0x00, 0x00, 0xc0, 0x7f, 0x00, 0x00, 0xc0, 0x7f,
  0x00, 0x00, 0xc0, 0x7f, 0x00, 0x00, 0xc0, 0x7f, 0x00, 0x00, 0xc0, 0x7f,
  0x00, 0x00, 0xc0, 0x7f, 0x00, 0x00, 0xc0, 0x7f, 0x00, 0x00, 0xc0, 0x7f,
  0x00, 0x00, 0xc0, 0x7f, 0x00, 0x00, 0xc0, 0x7f, 0x00, 0x00, 0xc0, 0x7f,
  0x00, 0x00, 0xc0, 0x7f, 0x00, 0x00, 0xc0, 0x7f, 0x00, 0x00, 0xc0, 0x7f,
  0x00, 0x00, 0xc0, 0x7f, 0x00, 0x00, 0xc0, 0x7f, 0x00, 0x00, 0xc0, 0x7f,
  0x00, 0x00, 0xc0, 0x7f, 0x00, 0x00, 0xc0, 0x7f, 0x00, 0x00, 0xc0, 0x7f,
  0x00, 0x00, 0xc0, 0x7f, 0x00, 0x00, 0xc0, 0x7f, 0x00, 0x00, 0xc0, 0x7f,
  0x00, 0x00, 0xc0, 0x7f, 0x00, 0x00, 0xc0, 0x7f, 0x00, 0x00, 0xc0, 0x7f,
  0x00, 0x00, 0xc0, 0x7f, 0x00, 0x00, 0xc0, 0x7f, 0x00, 0x00, 0xc0, 0x7f,
  0x00, 0x00, 0xc0, 0x7f, 0x00, 0x00, 0xc0, 0x7f, 0x00, 0x00, 0xc0, 0x7f,
  0x00, 0x00, 0xc0, 0x7f, 0x00, 0x00, 0xc0, 0x7f, 0x00, 0x00, 0xc0, 0x7f,
  0x00, 0x00, 0xc0, 0x7f, 0x00, 0x00, 0xc0, 0x7f, 0x00, 0x00, 0xc0, 0x7f,
  0x00, 0x00, 0xc0, 0x7f, 0x00, 0x00, 0xc0, 0x7f, 0x00, 0x00, 0xc0, 0x7f,
  0x00, 0x00, 0xc0, 0x7f, 0x00, 0x00, 0xc0, 0x7f, 0x00, 0x00, 0xc0, 0x7f,
  0x00, 0x00, 0xc0, 0x7f, 0x00, 0x00, 0xc0, 0x7f, 0x00, 0x00, 0xc0, 0x7f,
  0x00, 0x00, 0xc0, 0x7f, 0x00, 0x00, 0xc0, 0x7f, 0x00, 0x00, 0xc0, 0x7f,
  0x00, 0x00, 0xc0, 0x7f, 0x00, 0x00, 0xc0, 0x7f, 0x00, 0x00, 0xc0, 0x7f,
  0x00, 0x00, 0xc0, 0x7f, 0x00, 0x00, 0xc0, 0x7f, 0x00, 0x00, 0xc0, 0x7f,
  0x00, 0x00, 0xc0, 0x7f, 0x00, 0x00, 0xc0, 0x7f, 0x00, 0x00, 0xc0, 0x7f,
  0x00, 0x00, 0xc0, 0x7f, 0x00, 0x00, 0xc0, 0x7f, 0x00, 0x00, 0xc0, 0x7f,
  0x00, 0x00, 0xc0, 0x7f, 0x00, 0x00, 0xc0, 0x7f, 0x00, 0x00, 0xc0, 0x7f,
  0x00, 0x00, 0xc0, 0x7f, 0x00, 0x00, 0xc0, 0x7f, 0x00, 0x00, 0xc0, 0x7f,
  0x00, 0x00, 0xc0, 0x7f, 0x00, 0x00, 0xc0, 0x7f, 0x00, 0x00, 0xc0, 0x7f,
  0x00, 0x00, 0xc0, 0x7f, 0x00, 0x00, 0xc0, 0x7f, 0x00, 0x00, 0xc0, 0x7f,
  0x00, 0x00, 0xc0, 0x7f, 0x00, 0x00, 0xc0, 0x7f, 0x00, 0x00, 0xc0, 0x7f,
  0x00, 0x00, 0xc0, 0x7f, 0x00, 0x00, 0xc0, 0x7f, 0x00, 0x00, 0xc0, 0x7f,
  0x00, 0x00, 0xc0, 0x7f, 0x00, 0x00, 0xc0, 0x7f, 0x00, 0x00, 0xc0, 0x7f,
  0x00, 0x00, 0xc0, 0x7f, 0x00, 0x00, 0xc0, 0x7f, 0x00, 0x00, 0xc0, 0x7f,
  0x00, 0x00, 0xc0, 0x7f, 0x00, 0x00, 0xc0, 0x7f, 0x00, 0x00, 0xc0, 0x7f,
  0x00, 0x00, 0xc0, 0x7f, 0x00, 0x00, 0xc0, 0x7f, 0x00, 0x00, 0xc0, 0x7f,
  0x00, 0x00, 0xc0, 0x7f, 0x00, 0x00, 0xc0, 0x7f, 0x00, 0x00, 0xc0, 0x7f,
  0x00, 0x00, 0xc0, 0x7f, 0x00, 0x00, 0xc0, 0x7f, 0x00, 0x00, 0xc0, 0x7f,
  0x00, 0x00, 0xc0, 0x7f, 0x00, 0x00, 0xc0, 0x7f, 0x00, 0x00, 0xc0, 0x7f,
  0x00, 0x00, 0xc0, 0x7f, 0x00, 0x00, 0xc0, 0x7f, 0x00, 0x00, 0xc0, 0x7f,
  0x00, 0x00, 0xc0, 0x7f, 0x00, 0x00, 0xc0, 0x7f, 0x00, 0x00, 0xc0, 0x7f,
  0x00, 0x00, 0xc0, 0x7f, 0x00, 0x00, 0xc0, 0x7f, 0x00, 0x00, 0xc0, 0x7f,
  0x00, 0x00, 0xc0, 0x7f, 0x00, 0x00, 0xc0, 0x7f, 0x00, 0x00, 0xc0, 0x7f,
  0x00, 0x00, 0xc0, 0x7f, 0x00, 0x00, 0xc0, 0x7f, 0x00, 0x00, 0xc0, 0x7f,
  0x00, 0x00, 0xc0, 0x7f, 0x00, 0x00, 0xc0, 0x7f, 0x00, 0x00, 0xc0, 0x7f,
  0x00, 0x00, 0xc0, 0x7f, 0x00, 0x00, 0xc0, 0x7f, 0x00, 0x00, 0xc0, 0x7f,
  0x00, 0x00, 0xc0, 0x7f, 0x00, 0x00, 0xc0, 0x7f, 0x00, 0x00, 0xc0, 0x7f,
  0x00, 0x00, 0xc0, 0x7f, 0x00, 0x00, 0xc0, 0x7f, 0x00, 0x00, 0xc0, 0x7f,
  0x00, 0x00, 0xc0, 0x7f, 0x00, 0x00, 0xc0, 0x7f, 0x00, 0x00, 0xc0, 0x7f,
  0x00, 0x00, 0xc0, 0x7f, 0x00, 0x00, 0xc0, 0x7f, 0x00, 0x00, 0xc0, 0x7f,
  0x00, 0x00, 0xc0, 0x7f, 0x00, 0x00, 0xc0, 0x7f, 0x00, 0x00, 0xc0, 0x7f,
  0x00, 0x00, 0xc0, 0x7f, 0x00, 0x00, 0xc0, 0x7f, 0x00, 0x00, 0xc0, 0x7f,
  0x00, 0x00, 0xc0, 0x7f, 0x00, 0x00, 0xc0, 0x7f, 0x00, 0x00, 0xc0, 0x7f,
  0x00, 0x00, 0xc0, 0x7f, 0x00, 0x00, 0xc0, 0x7f, 0x00, 0x00, 0xc0, 0x7f,
  0x00, 0x00, 0xc0, 0x7f, 0x00, 0x00, 0xc0, 0x7f, 0x00, 0x00, 0xc0, 0x7f,
  0x00, 0x00, 0xc0, 0x7f, 0x00, 0x00, 0xc0, 0x7f, 0x00, 0x00, 0xc0, 0x7f,
  0x00, 0x00, 0xc0, 0x7f, 0x00, 0x00, 0xc0, 0x7f, 0x00, 0x00, 0xc0, 0x7f,
  0x00, 0x00, 0xc0, 0x7f, 0x00, 0x00, 0xc0, 0x7f, 0x00, 0x00, 0xc0, 0x7f,
  0x00, 0x00, 0xc0, 0x7f, 0x00, 0x00, 0xc0, 0x7f, 0x00, 0x00, 0xc0, 0x7f,
  0x00, 0x00, 0xc0, 0x7f, 0x00, 0x00, 0xc0, 0x7f, 0x00, 0x00, 0xc0, 0x7f,
  0x00, 0x00, 0xc0, 0x7f, 0x00, 0x00, 0xc0, 0x7f, 0x00, 0x00, 0xc0, 0x7f,
  0x00, 0x00, 0xc0, 0x7f, 0x00, 0x00, 0xc0, 0x7f, 0x00, 0x00, 0xc0, 0x7f,
  0x00, 0x00, 0xc0, 0x7f, 0x00, 0x00, 0xc0, 0x7f, 0x00, 0x00, 0xc0, 0x7f,
  0x00, 0x00, 0xc0, 0x7f, 0x00, 0x00, 0xc0, 0x7f, 0x00, 0x00, 0xc0, 0x7f,
  0x00, 0x00, 0xc0, 0x7f, 0x00, 0x00, 0xc0, 0x7f, 0x00, 0x00, 0xc0, 0x7f,
  0x00, 0x00, 0xc0, 0x7f, 0x00, 0x00, 0xc0, 0x7f, 0x00, 0x00, 0xc0, 0x7f,
  0x00, 0x00, 0xc0, 0x7f, 0x00, 0x00, 0xc0, 0x7f, 0x00, 0x00, 0xc0, 0x7f,
  0x00, 0x00, 0xc0, 0x7f, 0x00, 0x00, 0xc0, 0x7f, 0x00, 0x00, 0xc0, 0x7f,
  0x00, 0x00, 0xc0, 0x7f, 0x00, 0x00, 0xc0, 0x7f, 0x00, 0x00, 0xc0, 0x7f,
  0x00, 0x00, 0xc0, 0x7f, 0x00, 0x00, 0xc0, 0x7f, 0x00, 0x00, 0xc0, 0x7f,
  0x00, 0x00, 0xc0, 0x7f, 0x00, 0x00, 0xc0, 0x7f, 0x00, 0x00, 0xc0, 0x7f,
  0x00, 0x00, 0xc0, 0x7f, 0x00, 0x00, 0xc0, 0x7f, 0x00, 0x00, 0xc0, 0x7f,
  0x00, 0x00, 0xc0, 0x7f, 0x00, 0x00, 0xc0, 0x7f, 0x00, 0x00, 0xc0, 0x7f,
  0x00, 0x00, 0xc0, 0x7f, 0x00, 0x00, 0xc0, 0x7f, 0x00, 0x00, 0xc0, 0x7f,
  0x00, 0x00, 0xc0, 0x7f, 0x00, 0x00, 0xc0, 0x7f, 0x00, 0x00, 0xc0, 0x7f,
  0x00, 0x00, 0xc0, 0x7f, 0x00, 0x00, 0xc0, 0x7f, 0x00, 0x00, 0xc0, 0x7f,
  0x00, 0x00, 0xc0, 0x7f, 0x00, 0x00, 0xc0, 0x7f, 0x00, 0x00, 0xc0, 0x7f,
  0x00, 0x00, 0xc0, 0x7f, 0x00, 0x00, 0xc0, 0x7f, 0x00, 0x00, 0xc0, 0x7f,
  0x00, 0x00, 0xc0, 0x7f, 0x00, 0x00, 0xc0, 0x7f, 0x00, 0x00, 0xc0, 0x7f,
  0x00, 0x00, 0xc0, 0x7f, 0x00, 0x00, 0xc0, 0x7f, 0x00, 0x00, 0xc0, 0x7f,
  0x00, 0x00, 0xc0, 0x7f, 0x00, 0x00, 0xc0, 0x7f, 0x00, 0x00, 0xc0, 0x7f,
  0x00, 0x00, 0xc0, 0x7f, 0x00, 0x00, 0xc0, 0x7f, 0x00, 0x00, 0xc0, 0x7f,
  0x00, 0x00, 0xc0, 0x7f, 0x00, 0x00, 0xc0, 0x7f, 0x00, 0x00, 0xc0, 0x7f,
  0x00, 0x00, 0xc0, 0x7f, 0x00, 0x00, 0xc0, 0x7f, 0x00, 0x00, 0xc0, 0x7f,
  0x00, 0x00, 0xc0, 0x7f, 0x00, 0x00, 0xc0, 0x7f, 0x00, 0x00, 0xc0, 0x7f,
  0x00, 0x00, 0xc0, 0x7f, 0x00, 0x00, 0xc0, 0x7f, 0x00, 0x00, 0xc0, 0x7f,
  0x00, 0x00, 0xc0, 0x7f, 0x00, 0x00, 0xc0, 0x7f, 0x00, 0x00, 0xc0, 0x7f,
  0x00, 0x00, 0xc0, 0x7f, 0x00, 0x00, 0xc0, 0x7f, 0x00, 0x00, 0xc0, 0x7f,
  0x00, 0x00, 0xc0, 0x7f, 0x00, 0x00, 0xc0, 0x7f, 0x00, 0x00, 0xc0, 0x7f,
  0x00, 0x00, 0xc0, 0x7f, 0x00, 0x00, 0xc0, 0x7f, 0x00, 0x00, 0xc0, 0x7f,
  0x00, 0x00, 0xc0, 0x7f, 0x00, 0x00, 0xc0, 0x7f, 0x00, 0x00, 0xc0, 0x7f,
  0x00, 0x00, 0xc0, 0x7f, 0x00, 0x00, 0xc0, 0x7f, 0x00, 0x00, 0xc0, 0x7f,
  0x00, 0x00, 0xc0, 0x7f, 0x00, 0x00, 0xc0, 0x7f, 0x00, 0x00, 0xc0, 0x7f,
  0x00, 0x00, 0xc0, 0x7f, 0x00, 0x00, 0xc0, 0x7f, 0x00, 0x00, 0xc0, 0x7f,
  0x00, 0x00, 0xc0, 0x7f, 0x00, 0x00, 0xc0, 0x7f, 0x00, 0x00, 0xc0, 0x7f,
  0x00, 0x00, 0xc0, 0x7f, 0x00, 0x00, 0xc0, 0x7f, 0x00, 0x00, 0xc0, 0x7f,
  0x00, 0x00, 0xc0, 0x7f, 0x00, 0x00, 0xc0, 0x7f, 0x00, 0x00, 0xc0, 0x7f,
  0x00, 0x00, 0xc0, 0x7f, 0x00, 0x00, 0xc0, 0x7f, 0x00, 0x00, 0xc0, 0x7f,
  0x00, 0x00, 0xc0, 0x7f, 0x00, 0x00, 0xc0, 0x7f, 0x00, 0x00, 0xc0, 0x7f,
  0x00, 0x00, 0xc0, 0x7f, 0x00, 0x00, 0xc0, 0x7f, 0x00, 0x00, 0xc0, 0x7f,
  0x00, 0x00, 0xc0, 0x7f, 0x00, 0x00, 0xc0, 0x7f, 0x00, 0x00, 0xc0, 0x7f,
  0x00, 0x00, 0xc0, 0x7f, 0x00, 0x00, 0xc0, 0x7f, 0x00, 0x00, 0xc0, 0x7f,
  0x00, 0x00, 0xc0, 0x7f, 0x00, 0x00, 0xc0, 0x7f, 0x00, 0x00, 0xc0, 0x7f,
  0x00, 0x00, 0xc0, 0x7f, 0x00, 0x00, 0xc0, 0x7f, 0x00, 0x00, 0xc0, 0x7f,
  0x00, 0x00, 0xc0, 0x7f, 0x00, 0x00, 0xc0, 0x7f, 0x00, 0x00, 0xc0, 0x7f,
  0x00, 0x00, 0xc0, 0x7f, 0x00, 0x00, 0xc0, 0x7f, 0x00, 0x00, 0xc0, 0x7f,
  0x00, 0x00, 0xc0, 0x7f, 0x00, 0x00, 0xc0, 0x7f, 0x00, 0x00, 0xc0, 0x7f,
  0x00, 0x00, 0xc0, 0x7f, 0x00, 0x00, 0xc0, 0x7f, 0x00, 0x00, 0xc0, 0x7f,
  0x00, 0x00, 0xc0, 0x7f, 0x00, 0x00, 0xc0, 0x7f, 0x00, 0x00, 0xc0, 0x7f,
  0x00, 0x00, 0xc0, 0x7f, 0x00, 0x00, 0xc0, 0x7f, 0x00, 0x00, 0xc0, 0x7f,
  0x00, 0x00, 0xc0, 0x7f, 0x00, 0x00, 0xc0, 0x7f, 0x00, 0x00, 0xc0, 0x7f,
  0x00, 0x00, 0xc0, 0x7f, 0x00, 0x00, 0xc0, 0x7f, 0x00, 0x00, 0xc0, 0x7f,
  0x00, 0x00, 0xc0, 0x7f, 0x00, 0x00, 0xc0, 0x7f, 0x00, 0x00, 0xc0, 0x7f,
  0x00, 0x00, 0xc0, 0x7f, 0x00, 0x00, 0xc0, 0x7f, 0x00, 0x00, 0xc0, 0x7f,
  0x00, 0x00, 0xc0, 0x7f, 0x00, 0x00, 0xc0, 0x7f, 0x00, 0x00, 0xc0, 0x7f,
  0x00, 0x00, 0xc0, 0x7f, 0x00, 0x00, 0xc0, 0x7f, 0x00, 0x00, 0xc0, 0x7f,
  0x00, 0x00, 0xc0, 0x7f, 0x00, 0x00, 0xc0, 0x7f, 0x00, 0x00, 0xc0, 0x7f,
  0x00, 0x00, 0xc0, 0x7f, 0x00, 0x00, 0xc0, 0x7f, 0x00, 0x00, 0xc0, 0x7f,
  0x00, 0x00, 0xc0, 0x7f, 0x00, 0x00, 0xc0, 0x7f, 0x00, 0x00, 0xc0, 0x7f,
  0x00, 0x00, 0xc0, 0x7f, 0x00, 0x00, 0xc0, 0x7f, 0x00, 0x00, 0xc0, 0x7f,
  0x00, 0x00, 0xc0, 0x7f, 0x00, 0x00, 0xc0, 0x7f, 0x00, 0x00, 0xc0, 0x7f,
  0x00, 0x00, 0xc0, 0x7f, 0x00, 0x00, 0xc0, 0x7f, 0x00, 0x00, 0xc0, 0x7f,
  0x00, 0x00, 0xc0, 0x7f, 0x00, 0x00, 0xc0, 0x7f, 0x00, 0x00, 0xc0, 0x7f,
  0x00, 0x00, 0xc0, 0x7f, 0x00, 0x00, 0xc0, 0x7f, 0x00, 0x00, 0xc0, 0x7f,
  0x00, 0x00, 0xc0, 0x7f, 0x00, 0x00, 0xc0, 0x7f, 0x00, 0x00, 0xc0, 0x7f,
  0x00, 0x00, 0xc0, 0x7f, 0x00, 0x00, 0xc0, 0x7f, 0x00, 0x00, 0xc0, 0x7f,
  0x00, 0x00, 0xc0, 0x7f, 0x00, 0x00, 0xc0, 0x7f, 0x00, 0x00, 0xc0, 0x7f,
  0x00, 0x00, 0xc0, 0x7f, 0x00, 0x00, 0xc0, 0x7f, 0x00, 0x00, 0xc0, 0x7f,
  0x00, 0x00, 0xc0, 0x7f, 0x00, 0x00, 0xc0, 0x7f, 0x00, 0x00, 0xc0, 0x7f,
  0x00, 0x00, 0xc0, 0x7f, 0x00, 0x00, 0xc0, 0x7f, 0x00, 0x00, 0xc0, 0x7f,
  0x00, 0x00, 0xc0, 0x7f, 0x00, 0x00, 0xc0, 0x7f, 0x00, 0x00, 0xc0, 0x7f,
  0x00, 0x00, 0xc0, 0x7f, 0xa6, 0xfd, 0xff, 0xff, 0x04, 0x00, 0x00, 0x00,
  0x60, 0x00, 0x00, 0x00, 0x00, 0x00, 0xc0, 0x7f, 0x00, 0x00, 0xc0, 0x7f,
  0x00, 0x00, 0xc0, 0x7f, 0x00, 0x00, 0xc0, 0x7f, 0x00, 0x00, 0xc0, 0x7f,
  0x00, 0x00, 0xc0, 0x7f, 0x00, 0x00, 0xc0, 0x7f, 0x00, 0x00, 0xc0, 0x7f,
  0x00, 0x00, 0xc0, 0x7f, 0x00, 0x00, 0xc0, 0x7f, 0x00, 0x00, 0xc0, 0x7f,
  0x00, 0x00, 0xc0, 0x7f, 0x00, 0x00, 0xc0, 0x7f, 0x00, 0x00, 0xc0, 0x7f,
  0x00, 0x00, 0xc0, 0x7f, 0x00, 0x00, 0xc0, 0x7f, 0x00, 0x00, 0xc0, 0x7f,
  0x00, 0x00, 0xc0, 0x7f, 0x00, 0x00, 0xc0, 0x7f, 0x00, 0x00, 0xc0, 0x7f,
  0x00, 0x00, 0xc0, 0x7f, 0x00, 0x00, 0xc0, 0x7f, 0x00, 0x00, 0xc0, 0x7f,
  0x00, 0x00, 0xc0, 0x7f, 0x12, 0xfe, 0xff, 0xff, 0x04, 0x00, 0x00, 0x00,
  0xe0, 0x01, 0x00, 0x00, 0x00, 0x00, 0xc0, 0x7f, 0x00, 0x00, 0xc0, 0x7f,
  0x00, 0x00, 0xc0, 0x7f, 0x00, 0x00, 0xc0, 0x7f, 0x00, 0x00, 0xc0, 0x7f,
  0x00, 0x00, 0xc0, 0x7f, 0x00, 0x00, 0xc0, 0x7f, 0x00, 0x00, 0xc0, 0x7f,
  0x00, 0x00, 0xc0, 0x7f, 0x00, 0x00, 0xc0, 0x7f, 0x00, 0x00, 0xc0, 0x7f,
  0x00, 0x00, 0xc0, 0x7f, 0x00, 0x00, 0xc0, 0x7f, 0x00, 0x00, 0xc0, 0x7f,
  0x00, 0x00, 0xc0, 0x7f, 0x00, 0x00, 0xc0, 0x7f, 0x00, 0x00, 0xc0, 0x7f,
  0x00, 0x00, 0xc0, 0x7f, 0x00, 0x00, 0xc0, 0x7f, 0x00, 0x00, 0xc0, 0x7f,
  0x00, 0x00, 0xc0, 0x7f, 0x00, 0x00, 0xc0, 0x7f, 0x00, 0x00, 0xc0, 0x7f,
  0x00, 0x00, 0xc0, 0x7f, 0x00, 0x00, 0xc0, 0x7f, 0x00, 0x00, 0xc0, 0x7f,
  0x00, 0x00, 0xc0, 0x7f, 0x00, 0x00, 0xc0, 0x7f, 0x00, 0x00, 0xc0, 0x7f,
  0x00, 0x00, 0xc0, 0x7f, 0x00, 0x00, 0xc0, 0x7f, 0x00, 0x00, 0xc0, 0x7f,
  0x00, 0x00, 0xc0, 0x7f, 0x00, 0x00, 0xc0, 0x7f, 0x00, 0x00, 0xc0, 0x7f,
  0x00, 0x00, 0xc0, 0x7f, 0x00, 0x00, 0xc0, 0x7f, 0x00, 0x00, 0xc0, 0x7f,
  0x00, 0x00, 0xc0, 0x7f, 0x00, 0x00, 0xc0, 0x7f, 0x00, 0x00, 0xc0, 0x7f,
  0x00, 0x00, 0xc0, 0x7f, 0x00, 0x00, 0xc0, 0x7f, 0x00, 0x00, 0xc0, 0x7f,
  0x00, 0x00, 0xc0, 0x7f, 0x00, 0x00, 0xc0, 0x7f, 0x00, 0x00, 0xc0, 0x7f,
  0x00, 0x00, 0xc0, 0x7f, 0x00, 0x00, 0xc0, 0x7f, 0x00, 0x00, 0xc0, 0x7f,
  0x00, 0x00, 0xc0, 0x7f, 0x00, 0x00, 0xc0, 0x7f, 0x00, 0x00, 0xc0, 0x7f,
  0x00, 0x00, 0xc0, 0x7f, 0x00, 0x00, 0xc0, 0x7f, 0x00, 0x00, 0xc0, 0x7f,
  0x00, 0x00, 0xc0, 0x7f, 0x00, 0x00, 0xc0, 0x7f, 0x00, 0x00, 0xc0, 0x7f,
  0x00, 0x00, 0xc0, 0x7f, 0x00, 0x00, 0xc0, 0x7f, 0x00, 0x00, 0xc0, 0x7f,
  0x00, 0x00, 0xc0, 0x7f, 0x00, 0x00, 0xc0, 0x7f, 0x00, 0x00, 0xc0, 0x7f,
  0x00, 0x00, 0xc0, 0x7f, 0x00, 0x00, 0xc0, 0x7f, 0x00, 0x00, 0xc0, 0x7f,
  0x00, 0x00, 0xc0, 0x7f, 0x00, 0x00, 0xc0, 0x7f, 0x00, 0x00, 0xc0, 0x7f,
  0x00, 0x00, 0xc0, 0x7f, 0x00, 0x00, 0xc0, 0x7f, 0x00, 0x00, 0xc0, 0x7f,
  0x00, 0x00, 0xc0, 0x7f, 0x00, 0x00, 0xc0, 0x7f, 0x00, 0x00, 0xc0, 0x7f,
  0x00, 0x00, 0xc0, 0x7f, 0x00, 0x00, 0xc0, 0x7f, 0x00, 0x00, 0xc0, 0x7f,
  0x00, 0x00, 0xc0, 0x7f, 0x00, 0x00, 0xc0, 0x7f, 0x00, 0x00, 0xc0, 0x7f,
  0x00, 0x00, 0xc0, 0x7f, 0x00, 0x00, 0xc0, 0x7f, 0x00, 0x00, 0xc0, 0x7f,
  0x00, 0x00, 0xc0, 0x7f, 0x00, 0x00, 0xc0, 0x7f, 0x00, 0x00, 0xc0, 0x7f,
  0x00, 0x00, 0xc0, 0x7f, 0x00, 0x00, 0xc0, 0x7f, 0x00, 0x00, 0xc0, 0x7f,
  0x00, 0x00, 0xc0, 0x7f, 0x00, 0x00, 0xc0, 0x7f, 0x00, 0x00, 0xc0, 0x7f,
  0x00, 0x00, 0xc0, 0x7f, 0x00, 0x00, 0xc0, 0x7f, 0x00, 0x00, 0xc0, 0x7f,
  0x00, 0x00, 0xc0, 0x7f, 0x00, 0x00, 0xc0, 0x7f, 0x00, 0x00, 0xc0, 0x7f,
  0x00, 0x00, 0xc0, 0x7f, 0x00, 0x00, 0xc0, 0x7f, 0x00, 0x00, 0xc0, 0x7f,
  0x00, 0x00, 0xc0, 0x7f, 0x00, 0x00, 0xc0, 0x7f, 0x00, 0x00, 0xc0, 0x7f,
  0x00, 0x00, 0xc0, 0x7f, 0x00, 0x00, 0xc0, 0x7f, 0x00, 0x00, 0xc0, 0x7f,
  0x00, 0x00, 0xc0, 0x7f, 0x00, 0x00, 0xc0, 0x7f, 0x00, 0x00, 0xc0, 0x7f,
  0x00, 0x00, 0xc0, 0x7f, 0x00, 0x00, 0xc0, 0x7f, 0x00, 0x00, 0xc0, 0x7f,
  0x00, 0x00, 0xc0, 0x7f, 0x00, 0x00, 0xc0, 0x7f, 0x00, 0x00, 0xc0, 0x7f,
  0x00, 0x00, 0xc0, 0x7f, 0x00, 0x00, 0x06, 0x00, 0x08, 0x00, 0x04, 0x00,
  0x06, 0x00, 0x00, 0x00, 0x04, 0x00, 0x00, 0x00, 0x14, 0x00, 0x00, 0x00,
  0x25, 0xef, 0x58, 0xbc, 0xe5, 0x71, 0x10, 0x3c, 0x25, 0xb5, 0x48, 0xbc,
  0x93, 0xa1, 0x4b, 0x3c, 0x1c, 0x58, 0x79, 0xbc, 0x38, 0xfb, 0xff, 0xff,
  0x3c, 0xfb, 0xff, 0xff, 0x0f, 0x00, 0x00, 0x00, 0x4d, 0x4c, 0x49, 0x52,
  0x20, 0x43, 0x6f, 0x6e, 0x76, 0x65, 0x72, 0x74, 0x65, 0x64, 0x2e, 0x00,
  0x01, 0x00, 0x00, 0x00, 0x14, 0x00, 0x00, 0x00, 0x00, 0x00, 0x0e, 0x00,
  0x18, 0x00, 0x14, 0x00, 0x10, 0x00, 0x0c, 0x00, 0x08, 0x00, 0x04, 0x00,
  0x0e, 0x00, 0x00, 0x00, 0x14, 0x00, 0x00, 0x00, 0x1c, 0x00, 0x00, 0x00,
  0x10, 0x01, 0x00, 0x00, 0x14, 0x01, 0x00, 0x00, 0x18, 0x01, 0x00, 0x00,
  0x04, 0x00, 0x00, 0x00, 0x6d, 0x61, 0x69, 0x6e, 0x00, 0x00, 0x00, 0x00,
  0x04, 0x00, 0x00, 0x00, 0xd8, 0x00, 0x00, 0x00, 0x88, 0x00, 0x00, 0x00,
  0x3c, 0x00, 0x00, 0x00, 0x04, 0x00, 0x00, 0x00, 0x92, 0xff, 0xff, 0xff,
  0x14, 0x00, 0x00, 0x00, 0x00, 0x00, 0x00, 0x08, 0x10, 0x00, 0x00, 0x00,
  0x14, 0x00, 0x00, 0x00, 0x01, 0x00, 0x00, 0x00, 0xbc, 0xfb, 0xff, 0xff,
  0x01, 0x00, 0x00, 0x00, 0x0a, 0x00, 0x00, 0x00, 0x03, 0x00, 0x00, 0x00,
  0x09, 0x00, 0x00, 0x00, 0x02, 0x00, 0x00, 0x00, 0x01, 0x00, 0x00, 0x00,
  0xc6, 0xff, 0xff, 0xff, 0x14, 0x00, 0x00, 0x00, 0x00, 0x00, 0x00, 0x08,
  0x14, 0x00, 0x00, 0x00, 0x18, 0x00, 0x00, 0x00, 0x01, 0x00, 0x00, 0x00,
  0xb6, 0xff, 0xff, 0xff, 0x00, 0x00, 0x00, 0x01, 0x01, 0x00, 0x00, 0x00,
  0x09, 0x00, 0x00, 0x00, 0x03, 0x00, 0x00, 0x00, 0x08, 0x00, 0x00, 0x00,
  0x04, 0x00, 0x00, 0x00, 0x03, 0x00, 0x00, 0x00, 0x00, 0x00, 0x0e, 0x00,
  0x1a, 0x00, 0x14, 0x00, 0x10, 0x00, 0x0c, 0x00, 0x0b, 0x00, 0x04, 0x00,
  0x0e, 0x00, 0x00, 0x00, 0x1c, 0x00, 0x00, 0x00, 0x00, 0x00, 0x00, 0x08,
  0x1c, 0x00, 0x00, 0x00, 0x20, 0x00, 0x00, 0x00, 0x01, 0x00, 0x00, 0x00,
  0x00, 0x00, 0x06, 0x00, 0x08, 0x00, 0x07, 0x00, 0x06, 0x00, 0x00, 0x00,
  0x00, 0x00, 0x00, 0x01, 0x01, 0x00, 0x00, 0x00, 0x08, 0x00, 0x00, 0x00,
  0x03, 0x00, 0x00, 0x00, 0x07, 0x00, 0x00, 0x00, 0x06, 0x00, 0x00, 0x00,
  0x05, 0x00, 0x00, 0x00, 0x00, 0x00, 0x0a, 0x00, 0x0c, 0x00, 0x00, 0x00,
  0x08, 0x00, 0x04, 0x00, 0x0a, 0x00, 0x00, 0x00, 0x08, 0x00, 0x00, 0x00,
  0x0c, 0x00, 0x00, 0x00, 0x01, 0x00, 0x00, 0x00, 0x07, 0x00, 0x00, 0x00,
  0x01, 0x00, 0x00, 0x00, 0x00, 0x00, 0x00, 0x00, 0x01, 0x00, 0x00, 0x00,
  0x0a, 0x00, 0x00, 0x00, 0x01, 0x00, 0x00, 0x00, 0x00, 0x00, 0x00, 0x00,
  0x0b, 0x00, 0x00, 0x00, 0xa0, 0x03, 0x00, 0x00, 0x48, 0x03, 0x00, 0x00,
  0xf0, 0x02, 0x00, 0x00, 0xb4, 0x02, 0x00, 0x00, 0x74, 0x02, 0x00, 0x00,
  0x38, 0x02, 0x00, 0x00, 0xf8, 0x01, 0x00, 0x00, 0xa8, 0x01, 0x00, 0x00,
  0xfc, 0x00, 0x00, 0x00, 0x60, 0x00, 0x00, 0x00, 0x04, 0x00, 0x00, 0x00,
  0x7e, 0xfe, 0xff, 0xff, 0x00, 0x00, 0x00, 0x01, 0x14, 0x00, 0x00, 0x00,
  0x1c, 0x00, 0x00, 0x00, 0x1c, 0x00, 0x00, 0x00, 0x0b, 0x00, 0x00, 0x00,
  0x34, 0x00, 0x00, 0x00, 0x02, 0x00, 0x00, 0x00, 0xff, 0xff, 0xff, 0xff,
  0x05, 0x00, 0x00, 0x00, 0xf0, 0xfc, 0xff, 0xff, 0x1b, 0x00, 0x00, 0x00,
  0x53, 0x74, 0x61, 0x74, 0x65, 0x66, 0x75, 0x6c, 0x50, 0x61, 0x72, 0x74,
  0x69, 0x74, 0x69, 0x6f, 0x6e, 0x65, 0x64, 0x43, 0x61, 0x6c, 0x6c, 0x5f,
  0x31, 0x3a, 0x30, 0x00, 0x02, 0x00, 0x00, 0x00, 0x01, 0x00, 0x00, 0x00,
  0x05, 0x00, 0x00, 0x00, 0xd6, 0xfe, 0xff, 0xff, 0x00, 0x00, 0x00, 0x01,
  0x14, 0x00, 0x00, 0x00, 0x1c, 0x00, 0x00, 0x00, 0x1c, 0x00, 0x00, 0x00,
  0x0a, 0x00, 0x00, 0x00, 0x74, 0x00, 0x00, 0x00, 0x02, 0x00, 0x00, 0x00,
  0xff, 0xff, 0xff, 0xff, 0x18, 0x00, 0x00, 0x00, 0x48, 0xfd, 0xff, 0xff,
  0x58, 0x00, 0x00, 0x00, 0x73, 0x65, 0x71, 0x75, 0x65, 0x6e, 0x74, 0x69,
  0x61, 0x6c, 0x5f, 0x31, 0x2f, 0x64, 0x65, 0x6e, 0x73, 0x65, 0x5f, 0x31,
  0x5f, 0x32, 0x2f, 0x4d, 0x61, 0x74, 0x4d, 0x75, 0x6c, 0x3b, 0x73, 0x65,
  0x71, 0x75, 0x65, 0x6e, 0x74, 0x69, 0x61, 0x6c, 0x5f, 0x31, 0x2f, 0x64,
  0x65, 0x6e, 0x73, 0x65, 0x5f, 0x31, 0x5f, 0x32, 0x2f, 0x52, 0x65, 0x6c,
  0x75, 0x3b, 0x73, 0x65, 0x71, 0x75, 0x65, 0x6e, 0x74, 0x69, 0x61, 0x6c,
  0x5f, 0x31, 0x2f, 0x64, 0x65, 0x6e, 0x73, 0x65, 0x5f, 0x31, 0x5f, 0x32,
  0x2f, 0x42, 0x69, 0x61, 0x73, 0x41, 0x64, 0x64, 0x00, 0x00, 0x00, 0x00,
  0x02, 0x00, 0x00, 0x00, 0x01, 0x00, 0x00, 0x00, 0x18, 0x00, 0x00, 0x00,
  0x6e, 0xff, 0xff, 0xff, 0x00, 0x00, 0x00, 0x01, 0x14, 0x00, 0x00, 0x00,
  0x1c, 0x00, 0x00, 0x00, 0x1c, 0x00, 0x00, 0x00, 0x09, 0x00, 0x00, 0x00,
  0x6c, 0x00, 0x00, 0x00, 0x02, 0x00, 0x00, 0x00, 0xff, 0xff, 0xff, 0xff,
  0x20, 0x00, 0x00, 0x00, 0xe0, 0xfd, 0xff, 0xff, 0x52, 0x00, 0x00, 0x00,
  0x73, 0x65, 0x71, 0x75, 0x65, 0x6e, 0x74, 0x69, 0x61, 0x6c, 0x5f, 0x31,
  0x2f, 0x64, 0x65, 0x6e, 0x73, 0x65, 0x5f, 0x31, 0x2f, 0x4d, 0x61, 0x74,
  0x4d, 0x75, 0x6c, 0x3b, 0x73, 0x65, 0x71, 0x75, 0x65, 0x6e, 0x74, 0x69,
  0x61, 0x6c, 0x5f, 0x31, 0x2f, 0x64, 0x65, 0x6e, 0x73, 0x65, 0x5f, 0x31,
  0x2f, 0x52, 0x65, 0x6c, 0x75, 0x3b, 0x73, 0x65, 0x71, 0x75, 0x65, 0x6e,
  0x74, 0x69, 0x61, 0x6c, 0x5f, 0x31, 0x2f, 0x64, 0x65, 0x6e, 0x73, 0x65,
  0x5f, 0x31, 0x2f, 0x42, 0x69, 0x61, 0x73, 0x41, 0x64, 0x64, 0x00, 0x00,
  0x02, 0x00, 0x00, 0x00, 0x01, 0x00, 0x00, 0x00, 0x20, 0x00, 0x00, 0x00,
  0x00, 0x00, 0x16, 0x00, 0x1c, 0x00, 0x18, 0x00, 0x00, 0x00, 0x14, 0x00,
  0x10, 0x00, 0x0c, 0x00, 0x00, 0x00, 0x00, 0x00, 0x08, 0x00, 0x07, 0x00,
  0x16, 0x00, 0x00, 0x00, 0x00, 0x00, 0x00, 0x01, 0x14, 0x00, 0x00, 0x00,
  0x1c, 0x00, 0x00, 0x00, 0x1c, 0x00, 0x00, 0x00, 0x08, 0x00, 0x00, 0x00,
  0x28, 0x00, 0x00, 0x00, 0x02, 0x00, 0x00, 0x00, 0xff, 0xff, 0xff, 0xff,
  0x05, 0x00, 0x00, 0x00, 0x88, 0xfe, 0xff, 0xff, 0x0e, 0x00, 0x00, 0x00,
  0x74, 0x66, 0x6c, 0x2e, 0x64, 0x65, 0x71, 0x75, 0x61, 0x6e, 0x74, 0x69,
  0x7a, 0x65, 0x00, 0x00, 0x02, 0x00, 0x00, 0x00, 0x01, 0x00, 0x00, 0x00,
  0x05, 0x00, 0x00, 0x00, 0xda, 0xfe, 0xff, 0xff, 0x00, 0x00, 0x00, 0x01,
  0x10, 0x00, 0x00, 0x00, 0x10, 0x00, 0x00, 0x00, 0x07, 0x00, 0x00, 0x00,
  0x1c, 0x00, 0x00, 0x00, 0xc4, 0xfe, 0xff, 0xff, 0x0f, 0x00, 0x00, 0x00,
  0x61, 0x72, 0x69, 0x74, 0x68, 0x2e, 0x63, 0x6f, 0x6e, 0x73, 0x74, 0x61,
  0x6e, 0x74, 0x35, 0x00, 0x02, 0x00, 0x00, 0x00, 0x20, 0x00, 0x00, 0x00,
  0x05, 0x00, 0x00, 0x00, 0x16, 0xff, 0xff, 0xff, 0x00, 0x00, 0x00, 0x01,
  0x10, 0x00, 0x00, 0x00, 0x10, 0x00, 0x00, 0x00, 0x06, 0x00, 0x00, 0x00,
  0x1c, 0x00, 0x00, 0x00, 0x00, 0xff, 0xff, 0xff, 0x0f, 0x00, 0x00, 0x00,
  0x61, 0x72, 0x69, 0x74, 0x68, 0x2e, 0x63, 0x6f, 0x6e, 0x73, 0x74, 0x61,
  0x6e, 0x74, 0x34, 0x00, 0x01, 0x00, 0x00, 0x00, 0x20, 0x00, 0x00, 0x00,
  0x4e, 0xff, 0xff, 0xff, 0x00, 0x00, 0x00, 0x01, 0x10, 0x00, 0x00, 0x00,
  0x10, 0x00, 0x00, 0x00, 0x05, 0x00, 0x00, 0x00, 0x1c, 0x00, 0x00, 0x00,
  0x38, 0xff, 0xff, 0xff, 0x0f, 0x00, 0x00, 0x00, 0x61, 0x72, 0x69, 0x74,
  0x68, 0x2e, 0x63, 0x6f, 0x6e, 0x73, 0x74, 0x61, 0x6e, 0x74, 0x33, 0x00,
  0x02, 0x00, 0x00, 0x00, 0x18, 0x00, 0x00, 0x00, 0x20, 0x00, 0x00, 0x00,
  0x8a, 0xff, 0xff, 0xff, 0x00, 0x00, 0x00, 0x01, 0x10, 0x00, 0x00, 0x00,
  0x10, 0x00, 0x00, 0x00, 0x04, 0x00, 0x00, 0x00, 0x1c, 0x00, 0x00, 0x00,
  0x74, 0xff, 0xff, 0xff, 0x0f, 0x00, 0x00, 0x00, 0x61, 0x72, 0x69, 0x74,
  0x68, 0x2e, 0x63, 0x6f, 0x6e, 0x73, 0x74, 0x61, 0x6e, 0x74, 0x32, 0x00,
  0x01, 0x00, 0x00, 0x00, 0x18, 0x00, 0x00, 0x00, 0xc2, 0xff, 0xff, 0xff,
  0x00, 0x00, 0x00, 0x01, 0x10, 0x00, 0x00, 0x00, 0x10, 0x00, 0x00, 0x00,
  0x03, 0x00, 0x00, 0x00, 0x1c, 0x00, 0x00, 0x00, 0xac, 0xff, 0xff, 0xff,
  0x0f, 0x00, 0x00, 0x00, 0x61, 0x72, 0x69, 0x74, 0x68, 0x2e, 0x63, 0x6f,
  0x6e, 0x73, 0x74, 0x61, 0x6e, 0x74, 0x31, 0x00, 0x02, 0x00, 0x00, 0x00,
  0x05, 0x00, 0x00, 0x00, 0x18, 0x00, 0x00, 0x00, 0x00, 0x00, 0x16, 0x00,
  0x18, 0x00, 0x14, 0x00, 0x00, 0x00, 0x10, 0x00, 0x0c, 0x00, 0x08, 0x00,
  0x00, 0x00, 0x00, 0x00, 0x00, 0x00, 0x07, 0x00, 0x16, 0x00, 0x00, 0x00,
  0x00, 0x00, 0x00, 0x01, 0x14, 0x00, 0x00, 0x00, 0x14, 0x00, 0x00, 0x00,
  0x02, 0x00, 0x00, 0x00, 0x20, 0x00, 0x00, 0x00, 0x04, 0x00, 0x04, 0x00,
  0x04, 0x00, 0x00, 0x00, 0x0e, 0x00, 0x00, 0x00, 0x61, 0x72, 0x69, 0x74,
  0x68, 0x2e, 0x63, 0x6f, 0x6e, 0x73, 0x74, 0x61, 0x6e, 0x74, 0x00, 0x00,
  0x01, 0x00, 0x00, 0x00, 0x05, 0x00, 0x00, 0x00, 0x00, 0x00, 0x16, 0x00,
  0x20, 0x00, 0x1c, 0x00, 0x1b, 0x00, 0x14, 0x00, 0x10, 0x00, 0x0c, 0x00,
  0x00, 0x00, 0x00, 0x00, 0x08, 0x00, 0x07, 0x00, 0x16, 0x00, 0x00, 0x00,
  0x00, 0x00, 0x00, 0x01, 0x18, 0x00, 0x00, 0x00, 0x2c, 0x00, 0x00, 0x00,
  0x48, 0x00, 0x00, 0x00, 0x01, 0x00, 0x00, 0x00, 0x00, 0x00, 0x00, 0x09,
  0x60, 0x00, 0x00, 0x00, 0x02, 0x00, 0x00, 0x00, 0xff, 0xff, 0xff, 0xff,
  0x05, 0x00, 0x00, 0x00, 0x0c, 0x00, 0x0c, 0x00, 0x00, 0x00, 0x00, 0x00,
  0x08, 0x00, 0x04, 0x00, 0x0c, 0x00, 0x00, 0x00, 0x08, 0x00, 0x00, 0x00,
  0x10, 0x00, 0x00, 0x00, 0x01, 0x00, 0x00, 0x00, 0x2c, 0x00, 0x00, 0x00,
  0x00, 0x00, 0x00, 0x00, 0x01, 0x00, 0x00, 0x00, 0xf8, 0x65, 0x75, 0x3c,
  0x1e, 0x00, 0x00, 0x00, 0x73, 0x65, 0x72, 0x76, 0x69, 0x6e, 0x67, 0x5f,
  0x64, 0x65, 0x66, 0x61, 0x75, 0x6c, 0x74, 0x5f, 0x6b, 0x65, 0x72, 0x61,
  0x73, 0x5f, 0x74, 0x65, 0x6e, 0x73, 0x6f, 0x72, 0x3a, 0x30, 0x00, 0x00,
  0x02, 0x00, 0x00, 0x00, 0x01, 0x00, 0x00, 0x00, 0x05, 0x00, 0x00, 0x00,
  0x02, 0x00, 0x00, 0x00, 0x2c, 0x00, 0x00, 0x00, 0x10, 0x00, 0x00, 0x00,
  0x0c, 0x00, 0x0c, 0x00, 0x0b, 0x00, 0x00, 0x00, 0x00, 0x00, 0x04, 0x00,
  0x0c, 0x00, 0x00, 0x00, 0x09, 0x00, 0x00, 0x00, 0x00, 0x00, 0x00, 0x09,
  0x0c, 0x00, 0x10, 0x00, 0x0f, 0x00, 0x00, 0x00, 0x08, 0x00, 0x04, 0x00,
  0x0c, 0x00, 0x00, 0x00, 0x06, 0x00, 0x00, 0x00, 0x02, 0x00, 0x00, 0x00,
  0x00, 0x00, 0x00, 0x06
};
unsigned int quantized_model_tflite_len = 6496;
